{
  "version": "1.0",
  "truncation": null,
  "padding": null,
  "added_tokens": [
    {
      "id": 0,
      "content": "[UNK]",
      "single_word": false,
      "lstrip": false,
      "rstrip": false,
      "normalized": false,
      "special": true
    },
    {
      "id": 1,
      "content": "[CLS]",
      "single_word": false,
      "lstrip": false,
      "rstrip": false,
      "normalized": false,
      "special": true
    },
    {
      "id": 2,
      "content": "[SEP]",
      "single_word": false,
      "lstrip": false,
      "rstrip": false,
      "normalized": false,
      "special": true
    },
    {
      "id": 3,
      "content": "[PAD]",
      "single_word": false,
      "lstrip": false,
      "rstrip": false,
      "normalized": false,
      "special": true
    },
    {
      "id": 4,
      "content": "[MASK]",
      "single_word": false,
      "lstrip": false,
      "rstrip": false,
      "normalized": false,
      "special": true
    },
    {
      "id": 5,
      "content": "<s>",
      "single_word": false,
      "lstrip": false,
      "rstrip": false,
      "normalized": false,
      "special": true
    },
    {
      "id": 6,
      "content": "</s>",
      "single_word": false,
      "lstrip": false,
      "rstrip": false,
      "normalized": false,
      "special": true
    }
  ],
  "normalizer": null,
  "pre_tokenizer": {
    "type": "Whitespace"
  },
  "post_processor": null,
  "decoder": null,
  "model": {
    "type": "BPE",
    "dropout": null,
    "unk_token": "[UNK]",
    "continuing_subword_prefix": null,
    "end_of_word_suffix": null,
    "fuse_unk": false,
    "byte_fallback": false,
    "ignore_merges": false,
    "vocab": {
      "[UNK]": 0,
      "[CLS]": 1,
      "[SEP]": 2,
      "[PAD]": 3,
      "[MASK]": 4,
      "<s>": 5,
      "</s>": 6,
      "!": 7,
      "&": 8,
      "'": 9,
      "(": 10,
      ")": 11,
      "*": 12,
      ",": 13,
      "-": 14,
      ".": 15,
      "0": 16,
      "1": 17,
      "2": 18,
      "3": 19,
      "4": 20,
      "5": 21,
      "6": 22,
      "7": 23,
      "8": 24,
      "9": 25,
      ":": 26,
      ";": 27,
      "?": 28,
      "A": 29,
      "B": 30,
      "C": 31,
      "D": 32,
      "E": 33,
      "F": 34,
      "G": 35,
      "H": 36,
      "I": 37,
      "J": 38,
      "K": 39,
      "L": 40,
      "M": 41,
      "N": 42,
      "O": 43,
      "P": 44,
      "Q": 45,
      "R": 46,
      "S": 47,
      "T": 48,
      "U": 49,
      "V": 50,
      "W": 51,
      "X": 52,
      "Y": 53,
      "Z": 54,
      "[": 55,
      "]": 56,
      "_": 57,
      "a": 58,
      "b": 59,
      "c": 60,
      "d": 61,
      "e": 62,
      "f": 63,
      "g": 64,
      "h": 65,
      "i": 66,
      "j": 67,
      "k": 68,
      "l": 69,
      "m": 70,
      "n": 71,
      "o": 72,
      "p": 73,
      "q": 74,
      "r": 75,
      "s": 76,
      "t": 77,
      "u": 78,
      "v": 79,
      "w": 80,
      "x": 81,
      "y": 82,
      "z": 83,
      "£": 84,
      "«": 85,
      "»": 86,
      "à": 87,
      "â": 88,
      "ç": 89,
      "è": 90,
      "ê": 91,
      "ë": 92,
      "ô": 93,
      "ù": 94,
      "А": 95,
      "В": 96,
      "Д": 97,
      "Е": 98,
      "Ж": 99,
      "И": 100,
      "Й": 101,
      "К": 102,
      "М": 103,
      "Н": 104,
      "О": 105,
      "П": 106,
      "Ы": 107,
      "Я": 108,
      "а": 109,
      "б": 110,
      "в": 111,
      "г": 112,
      "д": 113,
      "е": 114,
      "ж": 115,
      "з": 116,
      "и": 117,
      "й": 118,
      "к": 119,
      "л": 120,
      "м": 121,
      "н": 122,
      "о": 123,
      "п": 124,
      "р": 125,
      "с": 126,
      "т": 127,
      "у": 128,
      "ф": 129,
      "х": 130,
      "ц": 131,
      "ч": 132,
      "ш": 133,
      "щ": 134,
      "ы": 135,
      "ь": 136,
      "э": 137,
      "ю": 138,
      "я": 139,
      "ё": 140,
      "–": 141,
      "—": 142,
      "‘": 143,
      "’": 144,
      "“": 145,
      "”": 146,
      "th": 147,
      "the": 148,
      "an": 149,
      "in": 150,
      "re": 151,
      "ou": 152,
      "er": 153,
      "at": 154,
      "and": 155,
      "on": 156,
      "ed": 157,
      "to": 158,
      "en": 159,
      "as": 160,
      "is": 161,
      "of": 162,
      "or": 163,
      "he": 164,
      "ing": 165,
      "it": 166,
      "me": 167,
      "ar": 168,
      "ll": 169,
      "es": 170,
      "ha": 171,
      "se": 172,
      "be": 173,
      "le": 174,
      "st": 175,
      "no": 176,
      "was": 177,
      "wh": 178,
      "that": 179,
      "ch": 180,
      "ld": 181,
      "id": 182,
      "gh": 183,
      "my": 184,
      "ve": 185,
      "wi": 186,
      "ce": 187,
      "ro": 188,
      "ut": 189,
      "so": 190,
      "ver": 191,
      "ly": 192,
      "li": 193,
      "ay": 194,
      "we": 195,
      "for": 196,
      "you": 197,
      "had": 198,
      "ent": 199,
      "with": 200,
      "al": 201,
      "im": 202,
      "ad": 203,
      "ow": 204,
      "ght": 205,
      "ould": 206,
      "all": 207,
      "ion": 208,
      "ir": 209,
      "his": 210,
      "ri": 211,
      "om": 212,
      "un": 213,
      "fe": 214,
      "de": 215,
      "not": 216,
      "sa": 217,
      "oo": 218,
      "red": 219,
      "ur": 220,
      "sh": 221,
      "up": 222,
      "ab": 223,
      "ck": 224,
      "ter": 225,
      "ag": 226,
      "ain": 227,
      "but": 228,
      "him": 229,
      "ke": 230,
      "ne": 231,
      "out": 232,
      "ti": 233,
      "ther": 234,
      "one": 235,
      "ore": 236,
      "The": 237,
      "whi": 238,
      "oun": 239,
      "ct": 240,
      ".”": 241,
      "su": 242,
      "pe": 243,
      "ca": 244,
      "thing": 245,
      "con": 246,
      "et": 247,
      "they": 248,
      "our": 249,
      "which": 250,
      "by": 251,
      "her": 252,
      "co": 253,
      "have": 254,
      "now": 255,
      "ard": 256,
      "ess": 257,
      "po": 258,
      "this": 259,
      "lo": 260,
      "go": 261,
      "them": 262,
      "am": 263,
      "if": 264,
      "very": 265,
      "were": 266,
      "bo": 267,
      "she": 268,
      "lf": 269,
      "rom": 270,
      "ry": 271,
      "ound": 272,
      "ra": 273,
      "us": 274,
      "some": 275,
      "res": 276,
      "man": 277,
      "ight": 278,
      "said": 279,
      "il": 280,
      "ex": 281,
      "would": 282,
      "te": 283,
      "ind": 284,
      "ul": 285,
      "do": 286,
      "la": 287,
      "way": 288,
      "from": 289,
      "qu": 290,
      "He": 291,
      "per": 292,
      "mo": 293,
      "self": 294,
      "could": 295,
      "ill": 296,
      "ust": 297,
      "ous": 298,
      "ast": 299,
      ",”": 300,
      "wor": 301,
      "ation": 302,
      "ant": 303,
      "der": 304,
      "are": 305,
      "reat": 306,
      "own": 307,
      "when": 308,
      "see": 309,
      "any": 310,
      "what": 311,
      "time": 312,
      "thou": 313,
      "ge": 314,
      "pp": 315,
      "ood": 316,
      "who": 317,
      "ho": 318,
      "art": 319,
      "there": 320,
      "end": 321,
      "ook": 322,
      "af": 323,
      "ong": 324,
      "ure": 325,
      "too": 326,
      "est": 327,
      "been": 328,
      "ved": 329,
      "ate": 330,
      "other": 331,
      "fa": 332,
      "itt": 333,
      "com": 334,
      "upon": 335,
      "dis": 336,
      "their": 337,
      "Wh": 338,
      "here": 339,
      "ish": 340,
      "fi": 341,
      "It": 342,
      "ven": 343,
      "into": 344,
      "more": 345,
      "about": 346,
      "ak": 347,
      "?”": 348,
      "fore": 349,
      "ru": 350,
      "Tom": 351,
      "ake": 352,
      "ide": 353,
      "ac": 354,
      "ade": 355,
      "did": 356,
      "day": 357,
      "si": 358,
      "able": 359,
      "tw": 360,
      "your": 361,
      "know": 362,
      "pt": 363,
      "ence": 364,
      "look": 365,
      "again": 366,
      "like": 367,
      "pro": 368,
      "!”": 369,
      "came": 370,
      "can": 371,
      "rou": 372,
      "then": 373,
      "litt": 374,
      "over": 375,
      "great": 376,
      "ple": 377,
      "sp": 378,
      "little": 379,
      "But": 380,
      "should": 381,
      "than": 382,
      "ci": 383,
      "ree": 384,
      "thought": 385,
      "ble": 386,
      "come": 387,
      "di": 388,
      "ass": 389,
      "made": 390,
      "ful": 391,
      "med": 392,
      "ran": 393,
      "ite": 394,
      "pl": 395,
      "age": 396,
      "down": 397,
      "will": 398,
      "might": 399,
      "ret": 400,
      "mu": 401,
      "el": 402,
      "ity": 403,
      "two": 404,
      "ep": 405,
      "bl": 406,
      "urn": 407,
      "ear": 408,
      "read": 409,
      "before": 410,
      "You": 411,
      "after": 412,
      "pres": 413,
      "beg": 414,
      "ward": 415,
      "ance": 416,
      "row": 417,
      "hand": 418,
      "Th": 419,
      "found": 420,
      "never": 421,
      "fir": 422,
      "ink": 423,
      "its": 424,
      "ic": 425,
      "say": 426,
      "ist": 427,
      "gl": 428,
      "ving": 429,
      "ment": 430,
      "life": 431,
      "much": 432,
      "most": 433,
      "every": 434,
      "being": 435,
      "new": 436,
      "pla": 437,
      "only": 438,
      "where": 439,
      "ack": 440,
      "pi": 441,
      "ine": 442,
      "des": 443,
      "long": 444,
      "pos": 445,
      "ers": 446,
      "don": 447,
      "good": 448,
      "ori": 449,
      "went": 450,
      "how": 451,
      "use": 452,
      "ount": 453,
      "myself": 454,
      "ap": 455,
      "ried": 456,
      "first": 457,
      "vi": 458,
      "pr": 459,
      "ves": 460,
      "ey": 461,
      "such": 462,
      "ort": 463,
      "ally": 464,
      "ever": 465,
      "gr": 466,
      "get": 467,
      "An": 468,
      "sha": 469,
      "fl": 470,
      "ness": 471,
      "ord": 472,
      "away": 473,
      "che": 474,
      "um": 475,
      "got": 476,
      "night": 477,
      "ted": 478,
      "under": 479,
      "land": 480,
      "vo": 481,
      "ang": 482,
      "pa": 483,
      "ren": 484,
      "ction": 485,
      "gi": 486,
      "ked": 487,
      "began": 488,
      "ach": 489,
      "off": 490,
      "well": 491,
      "Dori": 492,
      "Dorian": 493,
      "must": 494,
      "light": 495,
      "We": 496,
      "lice": 497,
      "these": 498,
      "pass": 499,
      "less": 500,
      "make": 501,
      "ull": 502,
      "dy": 503,
      "And": 504,
      "ning": 505,
      "fri": 506,
      "wat": 507,
      "Alice": 508,
      "ty": 509,
      "just": 510,
      "won": 511,
      "shi": 512,
      "back": 513,
      "ated": 514,
      "rem": 515,
      "place": 516,
      "men": 517,
      "llow": 518,
      "ga": 519,
      "boy": 520,
      "In": 521,
      "ice": 522,
      "think": 523,
      "let": 524,
      "ans": 525,
      "mis": 526,
      "ob": 527,
      "want": 528,
      "They": 529,
      "ened": 530,
      "part": 531,
      "uck": 532,
      "clo": 533,
      "yet": 534,
      "count": 535,
      "ser": 536,
      "things": 537,
      "ting": 538,
      "ced": 539,
      "ces": 540,
      "led": 541,
      "car": 542,
      "mon": 543,
      "happ": 544,
      "She": 545,
      "ps": 546,
      "saw": 547,
      "sol": 548,
      "sto": 549,
      "head": 550,
      "cl": 551,
      "arm": 552,
      "rest": 553,
      "tell": 554,
      "ise": 555,
      "No": 556,
      "sed": 557,
      "old": 558,
      "has": 559,
      "lie": 560,
      "bit": 561,
      "ue": 562,
      "ft": 563,
      "cour": 564,
      "though": 565,
      "spe": 566,
      "ions": 567,
      "nothing": 568,
      "ways": 569,
      "What": 570,
      "lt": 571,
      "even": 572,
      "took": 573,
      "call": 574,
      "side": 575,
      "ouse": 576,
      "three": 577,
      "gn": 578,
      "ber": 579,
      "eyes": 580,
      "ary": 581,
      "shore": 582,
      "ten": 583,
      "cont": 584,
      "word": 585,
      "rough": 586,
      "ath": 587,
      "ship": 588,
      "last": 589,
      "boat": 590,
      "hor": 591,
      "turn": 592,
      "em": 593,
      "od": 594,
      "mind": 595,
      "sup": 596,
      "sm": 597,
      "himself": 598,
      "There": 599,
      "bet": 600,
      "rid": 601,
      "body": 602,
      "mom": 603,
      "many": 604,
      "moment": 605,
      "jo": 606,
      "put": 607,
      "feel": 608,
      "Huck": 609,
      "mor": 610,
      "wards": 611,
      "deed": 612,
      "set": 613,
      "ently": 614,
      "work": 615,
      "always": 616,
      "appe": 617,
      "ose": 618,
      "ss": 619,
      "ched": 620,
      "ough": 621,
      "still": 622,
      "Lord": 623,
      "This": 624,
      "knew": 625,
      "going": 626,
      "seemed": 627,
      "bro": 628,
      "through": 629,
      "cc": 630,
      "creat": 631,
      "ies": 632,
      "take": 633,
      "ner": 634,
      "op": 635,
      "int": 636,
      "ings": 637,
      "ark": 638,
      "hi": 639,
      "world": 640,
      "sc": 641,
      "year": 642,
      "right": 643,
      "cons": 644,
      "looked": 645,
      "may": 646,
      "alk": 647,
      "something": 648,
      "pleas": 649,
      "When": 650,
      "friend": 651,
      "lay": 652,
      "told": 653,
      "My": 654,
      "Hen": 655,
      "full": 656,
      "Henry": 657,
      "tain": 658,
      "sur": 659,
      "ared": 660,
      "gu": 661,
      "those": 662,
      "near": 663,
      "shall": 664,
      "ily": 665,
      "fort": 666,
      "den": 667,
      "soon": 668,
      "times": 669,
      "pped": 670,
      "sat": 671,
      "ud": 672,
      "another": 673,
      "reas": 674,
      "heart": 675,
      "cted": 676,
      "father": 677,
      "pre": 678,
      "indeed": 679,
      "cer": 680,
      "kind": 681,
      "ray": 682,
      "without": 683,
      "ef": 684,
      "while": 685,
      "So": 686,
      "same": 687,
      "tic": 688,
      "par": 689,
      "vent": 690,
      "app": 691,
      "br": 692,
      "As": 693,
      "ished": 694,
      "till": 695,
      "once": 696,
      "aking": 697,
      "love": 698,
      "dist": 699,
      "nat": 700,
      "stand": 701,
      "hun": 702,
      "sea": 703,
      "cu": 704,
      "face": 705,
      "That": 706,
      "aw": 707,
      "ged": 708,
      "used": 709,
      "water": 710,
      "done": 711,
      "sen": 712,
      "wind": 713,
      "vered": 714,
      "qui": 715,
      "round": 716,
      "sou": 717,
      "xt": 718,
      "ars": 719,
      "felt": 720,
      "hard": 721,
      "Oh": 722,
      "left": 723,
      "fect": 724,
      "wonder": 725,
      "Har": 726,
      "bre": 727,
      "far": 728,
      "min": 729,
      "room": 730,
      "ame": 731,
      "fo": 732,
      "house": 733,
      "rought": 734,
      "Then": 735,
      "dre": 736,
      "find": 737,
      "mar": 738,
      "pain": 739,
      "pie": 740,
      "wever": 741,
      "mer": 742,
      "tor": 743,
      "quite": 744,
      "ped": 745,
      "ition": 746,
      "next": 747,
      "hands": 748,
      "bed": 749,
      "cause": 750,
      "occ": 751,
      "ref": 752,
      "belie": 753,
      "ls": 754,
      "ures": 755,
      "wa": 756,
      "chi": 757,
      "God": 758,
      "kill": 759,
      "island": 760,
      "atter": 761,
      "having": 762,
      "ious": 763,
      "nor": 764,
      "ations": 765,
      "miser": 766,
      "ople": 767,
      "ene": 768,
      "je": 769,
      "enough": 770,
      "heard": 771,
      "Be": 772,
      "door": 773,
      "ither": 774,
      "wood": 775,
      "also": 776,
      "cond": 777,
      "brought": 778,
      "ste": 779,
      "Well": 780,
      "mur": 781,
      "reme": 782,
      "gave": 783,
      "cur": 784,
      "cor": 785,
      "stoo": 786,
      "half": 787,
      "give": 788,
      "Gray": 789,
      "low": 790,
      "att": 791,
      "cei": 792,
      "tem": 793,
      "Frid": 794,
      "people": 795,
      "Friday": 796,
      "ng": 797,
      "stran": 798,
      "young": 799,
      "ool": 800,
      "str": 801,
      "His": 802,
      "aut": 803,
      "oe": 804,
      "iness": 805,
      "anything": 806,
      "son": 807,
      "home": 808,
      "ot": 809,
      "spo": 810,
      "resol": 811,
      "ned": 812,
      "sure": 813,
      "lea": 814,
      "Why": 815,
      "course": 816,
      "hour": 817,
      "pan": 818,
      "sin": 819,
      "stood": 820,
      "ered": 821,
      "port": 822,
      "possi": 823,
      "gre": 824,
      "ph": 825,
      "voice": 826,
      "joy": 827,
      "cut": 828,
      "cri": 829,
      "lad": 830,
      "ror": 831,
      "run": 832,
      "talk": 833,
      "ire": 834,
      "poor": 835,
      "Yes": 836,
      "sun": 837,
      "covered": 838,
      "days": 839,
      "lar": 840,
      "suf": 841,
      "whole": 842,
      "fin": 843,
      "tra": 844,
      "almost": 845,
      "Harry": 846,
      "vid": 847,
      "towards": 848,
      "beaut": 849,
      "dead": 850,
      "pose": 851,
      "En": 852,
      "gra": 853,
      "fire": 854,
      "pur": 855,
      "sil": 856,
      "hel": 857,
      "oot": 858,
      "eas": 859,
      "hu": 860,
      "ised": 861,
      "dear": 862,
      "return": 863,
      "country": 864,
      "mean": 865,
      "follow": 866,
      "How": 867,
      "tr": 868,
      "sel": 869,
      "looking": 870,
      "cle": 871,
      "few": 872,
      "ground": 873,
      "au": 874,
      "ms": 875,
      "val": 876,
      "If": 877,
      "Mr": 878,
      "air": 879,
      "live": 880,
      "thoughts": 881,
      "years": 882,
      "pow": 883,
      "passed": 884,
      "vis": 885,
      "seen": 886,
      "keep": 887,
      "cess": 888,
      "du": 889,
      "dest": 890,
      "tru": 891,
      "turned": 892,
      "Engl": 893,
      "present": 894,
      "called": 895,
      "Joe": 896,
      "ling": 897,
      "really": 898,
      "stru": 899,
      "cked": 900,
      "av": 901,
      "sle": 902,
      "hear": 903,
      "cried": 904,
      "boys": 905,
      "better": 906,
      "bar": 907,
      "dif": 908,
      "lau": 909,
      "words": 910,
      "certain": 911,
      "Bas": 912,
      "death": 913,
      "Basil": 914,
      "morning": 915,
      "gone": 916,
      "ile": 917,
      "ined": 918,
      "exce": 919,
      "believe": 920,
      "dread": 921,
      "les": 922,
      "contin": 923,
      "fall": 924,
      "wr": 925,
      "whom": 926,
      "deli": 927,
      "sub": 928,
      "remem": 929,
      "ol": 930,
      "dered": 931,
      "ained": 932,
      "rather": 933,
      "Now": 934,
      "sor": 935,
      "ts": 936,
      "tle": 937,
      "wom": 938,
      "asked": 939,
      "everything": 940,
      "name": 941,
      "because": 942,
      "child": 943,
      "ited": 944,
      "owed": 945,
      "large": 946,
      "ress": 947,
      "At": 948,
      "dri": 949,
      "haps": 950,
      "appeared": 951,
      "act": 952,
      "ross": 953,
      "ury": 954,
      "among": 955,
      "cy": 956,
      "ks": 957,
      "aken": 958,
      "play": 959,
      "fully": 960,
      "ign": 961,
      "iled": 962,
      "gir": 963,
      "ase": 964,
      "ready": 965,
      "possible": 966,
      "zed": 967,
      "form": 968,
      "spir": 969,
      "wish": 970,
      "ze": 971,
      "often": 972,
      "hope": 973,
      "reason": 974,
      "sk": 975,
      "reck": 976,
      "sec": 977,
      "rible": 978,
      "against": 979,
      "happy": 980,
      "bu": 981,
      "sever": 982,
      "raw": 983,
      "obser": 984,
      "aster": 985,
      "wild": 986,
      "ute": 987,
      "ject": 988,
      "resolved": 989,
      "inter": 990,
      "eng": 991,
      "ash": 992,
      "unt": 993,
      "ages": 994,
      "high": 995,
      "cha": 996,
      "eat": 997,
      "vers": 998,
      "herself": 999,
      "comm": 1000,
      "dire": 1001,
      "continu": 1002,
      "white": 1003,
      "fell": 1004,
      "feet": 1005,
      "rent": 1006,
      "surpr": 1007,
      "hind": 1008,
      "thus": 1009,
      "itu": 1010,
      "cho": 1011,
      "ken": 1012,
      "lab": 1013,
      "least": 1014,
      "ster": 1015,
      "whose": 1016,
      "rep": 1017,
      "ides": 1018,
      "capt": 1019,
      "soul": 1020,
      "strange": 1021,
      "human": 1022,
      "several": 1023,
      "ive": 1024,
      "inte": 1025,
      "rious": 1026,
      "fear": 1027,
      "ended": 1028,
      "acc": 1029,
      "press": 1030,
      "small": 1031,
      "gen": 1032,
      "grow": 1033,
      "wered": 1034,
      "imp": 1035,
      "care": 1036,
      "conf": 1037,
      "month": 1038,
      "laugh": 1039,
      "dden": 1040,
      "each": 1041,
      "try": 1042,
      "tow": 1043,
      "cul": 1044,
      "taken": 1045,
      "ering": 1046,
      "within": 1047,
      "hur": 1048,
      "ove": 1049,
      "around": 1050,
      "add": 1051,
      "uring": 1052,
      "lost": 1053,
      "board": 1054,
      "manner": 1055,
      "however": 1056,
      "list": 1057,
      "vil": 1058,
      "oured": 1059,
      "toge": 1060,
      "imag": 1061,
      "sudden": 1062,
      "tered": 1063,
      "creature": 1064,
      "dream": 1065,
      "together": 1066,
      "gun": 1067,
      "cir": 1068,
      "ta": 1069,
      "behind": 1070,
      "sav": 1071,
      "aged": 1072,
      "kept": 1073,
      "perfect": 1074,
      "interest": 1075,
      "ER": 1076,
      "dou": 1077,
      "fter": 1078,
      "became": 1079,
      "ately": 1080,
      "close": 1081,
      "refle": 1082,
      "cla": 1083,
      "ni": 1084,
      "expe": 1085,
      "answered": 1086,
      "selves": 1087,
      "cat": 1088,
      "tri": 1089,
      "both": 1090,
      "does": 1091,
      "fortun": 1092,
      "captain": 1093,
      "book": 1094,
      "sch": 1095,
      "swe": 1096,
      "help": 1097,
      "After": 1098,
      "ins": 1099,
      "delight": 1100,
      "pict": 1101,
      "dark": 1102,
      "foot": 1103,
      "gg": 1104,
      "sent": 1105,
      "sound": 1106,
      "char": 1107,
      "quest": 1108,
      "fan": 1109,
      "whe": 1110,
      "ask": 1111,
      "along": 1112,
      "piece": 1113,
      "ceived": 1114,
      "..": 1115,
      "Ho": 1116,
      "fellow": 1117,
      "account": 1118,
      "bring": 1119,
      "bly": 1120,
      "prom": 1121,
      "tre": 1122,
      "wall": 1123,
      "ating": 1124,
      "ular": 1125,
      "plain": 1126,
      "consid": 1127,
      "itself": 1128,
      "cky": 1129,
      "sometimes": 1130,
      "sign": 1131,
      "TER": 1132,
      "cal": 1133,
      "making": 1134,
      "sing": 1135,
      "habit": 1136,
      "sail": 1137,
      "perhaps": 1138,
      "nature": 1139,
      "girl": 1140,
      "All": 1141,
      "HA": 1142,
      "bus": 1143,
      "gent": 1144,
      "ison": 1145,
      "bear": 1146,
      "why": 1147,
      "coming": 1148,
      "fright": 1149,
      "open": 1150,
      "cast": 1151,
      "ew": 1152,
      "fre": 1153,
      "mere": 1154,
      "iful": 1155,
      "hold": 1156,
      "five": 1157,
      "carried": 1158,
      "true": 1159,
      "either": 1160,
      "ick": 1161,
      "ange": 1162,
      "inc": 1163,
      "deep": 1164,
      "cannot": 1165,
      "miserable": 1166,
      "CHA": 1167,
      "For": 1168,
      "PTER": 1169,
      "bes": 1170,
      "mus": 1171,
      "liz": 1172,
      "raid": 1173,
      "illed": 1174,
      "anger": 1175,
      "leave": 1176,
      "sleep": 1177,
      "CHAPTER": 1178,
      "tt": 1179,
      "yed": 1180,
      "ond": 1181,
      "enty": 1182,
      "unti": 1183,
      "Becky": 1184,
      "ied": 1185,
      "trou": 1186,
      "—”": 1187,
      "real": 1188,
      "arch": 1189,
      "lim": 1190,
      "cave": 1191,
      "says": 1192,
      "dro": 1193,
      "pri": 1194,
      "vant": 1195,
      "als": 1196,
      "afraid": 1197,
      "ches": 1198,
      "secret": 1199,
      "cent": 1200,
      "wret": 1201,
      "stant": 1202,
      "alked": 1203,
      "ains": 1204,
      "ments": 1205,
      "pair": 1206,
      "hung": 1207,
      "killed": 1208,
      "school": 1209,
      "order": 1210,
      "Po": 1211,
      "ace": 1212,
      "aven": 1213,
      "bla": 1214,
      "lan": 1215,
      "rel": 1216,
      "outh": 1217,
      "shed": 1218,
      "friends": 1219,
      "Don": 1220,
      "fam": 1221,
      "mid": 1222,
      "master": 1223,
      "pes": 1224,
      "wer": 1225,
      "stu": 1226,
      "whis": 1227,
      "sum": 1228,
      "point": 1229,
      "speak": 1230,
      "pieces": 1231,
      "strong": 1232,
      "since": 1233,
      "sight": 1234,
      "reach": 1235,
      "above": 1236,
      "comp": 1237,
      "six": 1238,
      "cious": 1239,
      "watch": 1240,
      "abe": 1241,
      "dred": 1242,
      "rock": 1243,
      "posed": 1244,
      "given": 1245,
      "passion": 1246,
      "appear": 1247,
      "dreadful": 1248,
      "dr": 1249,
      "four": 1250,
      "mount": 1251,
      "ured": 1252,
      "start": 1253,
      "lic": 1254,
      "entered": 1255,
      "ters": 1256,
      "oney": 1257,
      "sense": 1258,
      "matter": 1259,
      "pret": 1260,
      "table": 1261,
      "trem": 1262,
      "esca": 1263,
      "lear": 1264,
      "lied": 1265,
      "alone": 1266,
      "person": 1267,
      "earth": 1268,
      "understand": 1269,
      "horror": 1270,
      "Some": 1271,
      "hundred": 1272,
      ".—": 1273,
      "Si": 1274,
      "cre": 1275,
      "gard": 1276,
      "sit": 1277,
      "tree": 1278,
      "ween": 1279,
      "across": 1280,
      "medi": 1281,
      "wanted": 1282,
      "pleasure": 1283,
      "condition": 1284,
      "tempt": 1285,
      "However": 1286,
      "thir": 1287,
      "ances": 1288,
      "oud": 1289,
      "lly": 1290,
      "akes": 1291,
      "bled": 1292,
      "afterwards": 1293,
      "Eliz": 1294,
      "Hall": 1295,
      "best": 1296,
      "danger": 1297,
      "ring": 1298,
      "vill": 1299,
      "ination": 1300,
      "ons": 1301,
      "necess": 1302,
      "affe": 1303,
      "arms": 1304,
      "creatures": 1305,
      "town": 1306,
      "whether": 1307,
      "abeth": 1308,
      "Elizabeth": 1309,
      "eld": 1310,
      "fast": 1311,
      "become": 1312,
      "lived": 1313,
      "mother": 1314,
      "itted": 1315,
      "comfort": 1316,
      "twenty": 1317,
      "occas": 1318,
      "hill": 1319,
      "ith": 1320,
      "jp": 1321,
      "ome": 1322,
      "ses": 1323,
      "answer": 1324,
      "between": 1325,
      "followed": 1326,
      "consider": 1327,
      "gentle": 1328,
      "jpg": 1329,
      "Do": 1330,
      "Mo": 1331,
      "ig": 1332,
      "rain": 1333,
      "stay": 1334,
      "cover": 1335,
      "presently": 1336,
      "distance": 1337,
      "quick": 1338,
      "hardly": 1339,
      "reckon": 1340,
      "circ": 1341,
      "Hallward": 1342,
      "top": 1343,
      "held": 1344,
      "ingly": 1345,
      "entire": 1346,
      "peri": 1347,
      "partic": 1348,
      "hours": 1349,
      "continued": 1350,
      "king": 1351,
      "money": 1352,
      "sy": 1353,
      "thy": 1354,
      "ens": 1355,
      "aded": 1356,
      "shot": 1357,
      "themselves": 1358,
      "fair": 1359,
      "curious": 1360,
      "window": 1361,
      "destro": 1362,
      "itude": 1363,
      "doub": 1364,
      "ler": 1365,
      "ates": 1366,
      "stir": 1367,
      "lips": 1368,
      "col": 1369,
      "cold": 1370,
      "yourself": 1371,
      "chess": 1372,
      "gener": 1373,
      "short": 1374,
      "moved": 1375,
      "others": 1376,
      "compan": 1377,
      "view": 1378,
      "angu": 1379,
      "ctions": 1380,
      "ledge": 1381,
      "effect": 1382,
      "beautiful": 1383,
      "months": 1384,
      "picture": 1385,
      "until": 1386,
      "draw": 1387,
      "rose": 1388,
      "safe": 1389,
      "blood": 1390,
      "begin": 1391,
      "Just": 1392,
      "fer": 1393,
      "mad": 1394,
      "mouth": 1395,
      "pu": 1396,
      "shad": 1397,
      "ought": 1398,
      "iting": 1399,
      "means": 1400,
      "ably": 1401,
      "cap": 1402,
      "byl": 1403,
      "gold": 1404,
      "tears": 1405,
      "discovered": 1406,
      "feelings": 1407,
      "vidence": 1408,
      "labour": 1409,
      "Sibyl": 1410,
      "bound": 1411,
      "filled": 1412,
      "tion": 1413,
      "war": 1414,
      "met": 1415,
      "fered": 1416,
      "wonderful": 1417,
      "gro": 1418,
      "hide": 1419,
      "past": 1420,
      "sess": 1421,
      "thous": 1422,
      "wee": 1423,
      "ils": 1424,
      "eye": 1425,
      "England": 1426,
      "claim": 1427,
      "thousand": 1428,
      "Sid": 1429,
      "case": 1430,
      "tory": 1431,
      "arri": 1432,
      "loved": 1433,
      "possess": 1434,
      "satis": 1435,
      "One": 1436,
      "Que": 1437,
      "ff": 1438,
      "flo": 1439,
      "ris": 1440,
      "sort": 1441,
      "tried": 1442,
      "xed": 1443,
      "stre": 1444,
      "deal": 1445,
      "cott": 1446,
      "idea": 1447,
      "pressed": 1448,
      "voy": 1449,
      "spoke": 1450,
      "English": 1451,
      "certainly": 1452,
      "except": 1453,
      "remember": 1454,
      "trees": 1455,
      "On": 1456,
      "late": 1457,
      "ma": 1458,
      "ping": 1459,
      "seas": 1460,
      "wel": 1461,
      "ext": 1462,
      "laid": 1463,
      "pray": 1464,
      "observed": 1465,
      "II": 1466,
      "bor": 1467,
      "dle": 1468,
      "ats": 1469,
      "ory": 1470,
      "ety": 1471,
      "cient": 1472,
      "cience": 1473,
      "happened": 1474,
      "beauty": 1475,
      "Queen": 1476,
      "scar": 1477,
      "step": 1478,
      "change": 1479,
      "ady": 1480,
      "ferent": 1481,
      "coll": 1482,
      "else": 1483,
      "descri": 1484,
      "carry": 1485,
      "drew": 1486,
      "deliver": 1487,
      "perfectly": 1488,
      "entirely": 1489,
      "particular": 1490,
      "Tur": 1491,
      "bad": 1492,
      "bur": 1493,
      "during": 1494,
      "none": 1495,
      "ets": 1496,
      "express": 1497,
      "died": 1498,
      "glad": 1499,
      "getting": 1500,
      "flow": 1501,
      "power": 1502,
      "Span": 1503,
      "ele": 1504,
      "mine": 1505,
      "vel": 1506,
      "enter": 1507,
      "immedi": 1508,
      "tired": 1509,
      "didn": 1510,
      "woman": 1511,
      "occasion": 1512,
      "circum": 1513,
      "da": 1514,
      "hon": 1515,
      "ug": 1516,
      "throw": 1517,
      "adm": 1518,
      "terrible": 1519,
      "ards": 1520,
      "itting": 1521,
      "suppose": 1522,
      "corn": 1523,
      "women": 1524,
      "business": 1525,
      "black": 1526,
      "burn": 1527,
      "bread": 1528,
      "cru": 1529,
      "jun": 1530,
      "walked": 1531,
      "ater": 1532,
      "ney": 1533,
      "need": 1534,
      "ressed": 1535,
      "seems": 1536,
      "therefore": 1537,
      "spent": 1538,
      "misery": 1539,
      "grew": 1540,
      "pursu": 1541,
      "doubt": 1542,
      "By": 1543,
      "fit": 1544,
      "food": 1545,
      "ible": 1546,
      "sir": 1547,
      "tou": 1548,
      "ank": 1549,
      "charm": 1550,
      "iles": 1551,
      "fied": 1552,
      "ficul": 1553,
      "difficul": 1554,
      "expect": 1555,
      "ger": 1556,
      "gri": 1557,
      "jud": 1558,
      "va": 1559,
      "ye": 1560,
      "ende": 1561,
      "chang": 1562,
      "sick": 1563,
      "die": 1564,
      "desire": 1565,
      "suddenly": 1566,
      "Let": 1567,
      "plo": 1568,
      "ron": 1569,
      "ones": 1570,
      "utes": 1571,
      "viol": 1572,
      "broke": 1573,
      "scene": 1574,
      "nearly": 1575,
      "question": 1576,
      "voyage": 1577,
      "circumst": 1578,
      "Who": 1579,
      "cr": 1580,
      "har": 1581,
      "taking": 1582,
      "reg": 1583,
      "ors": 1584,
      "hair": 1585,
      "quar": 1586,
      "plant": 1587,
      "prison": 1588,
      "spect": 1589,
      "evening": 1590,
      "affection": 1591,
      "endeav": 1592,
      "eight": 1593,
      "fat": 1594,
      "hat": 1595,
      "hang": 1596,
      "leng": 1597,
      "vour": 1598,
      "lled": 1599,
      "formed": 1600,
      "forget": 1601,
      "known": 1602,
      "clothe": 1603,
      "feeling": 1604,
      "opened": 1605,
      "occur": 1606,
      "garden": 1607,
      "length": 1608,
      "tran": 1609,
      "walk": 1610,
      "ane": 1611,
      "ister": 1612,
      "already": 1613,
      "Here": 1614,
      "comple": 1615,
      "obli": 1616,
      "easy": 1617,
      "spirits": 1618,
      "savages": 1619,
      "King": 1620,
      "To": 1621,
      "Yet": 1622,
      "dry": 1623,
      "jour": 1624,
      "sw": 1625,
      "smo": 1626,
      "espe": 1627,
      "lying": 1628,
      "peace": 1629,
      "concer": 1630,
      "proper": 1631,
      "happiness": 1632,
      "venture": 1633,
      "break": 1634,
      "avy": 1635,
      "sorrow": 1636,
      "immediately": 1637,
      "fu": 1638,
      "gar": 1639,
      "mist": 1640,
      "oes": 1641,
      "pon": 1642,
      "slow": 1643,
      "van": 1644,
      "ery": 1645,
      "heavy": 1646,
      "second": 1647,
      "state": 1648,
      "ceed": 1649,
      "road": 1650,
      "youth": 1651,
      "alth": 1652,
      "neither": 1653,
      "dog": 1654,
      "seeing": 1655,
      "venge": 1656,
      "Injun": 1657,
      "finished": 1658,
      "grave": 1659,
      "silence": 1660,
      "aught": 1661,
      "subject": 1662,
      "surprised": 1663,
      "replied": 1664,
      "Du": 1665,
      "rup": 1666,
      "instant": 1667,
      "enjoy": 1668,
      "although": 1669,
      "ural": 1670,
      "wouldn": 1671,
      "doing": 1672,
      "flu": 1673,
      "stopped": 1674,
      "horrible": 1675,
      "minutes": 1676,
      "children": 1677,
      "fancy": 1678,
      "ired": 1679,
      "os": 1680,
      "rait": 1681,
      "powder": 1682,
      "village": 1683,
      "Every": 1684,
      "cry": 1685,
      "crow": 1686,
      "fur": 1687,
      "hid": 1688,
      "ton": 1689,
      "bell": 1690,
      "absol": 1691,
      "poin": 1692,
      "despair": 1693,
      "story": 1694,
      "appro": 1695,
      "trouble": 1696,
      "claimed": 1697,
      "colle": 1698,
      "Her": 1699,
      "Lady": 1700,
      "Will": 1701,
      "nest": 1702,
      "heaven": 1703,
      "soci": 1704,
      "show": 1705,
      "ending": 1706,
      "knowledge": 1707,
      "servant": 1708,
      "stor": 1709,
      "brother": 1710,
      "broken": 1711,
      "listen": 1712,
      "started": 1713,
      "clothes": 1714,
      "bb": 1715,
      "bran": 1716,
      "fing": 1717,
      "free": 1718,
      "igh": 1719,
      "ized": 1720,
      "pat": 1721,
      "pen": 1722,
      "swi": 1723,
      "usu": 1724,
      "ually": 1725,
      "wise": 1726,
      "rer": 1727,
      "ony": 1728,
      "ident": 1729,
      "terror": 1730,
      "amp": 1731,
      "que": 1732,
      "path": 1733,
      "woods": 1734,
      "added": 1735,
      "sym": 1736,
      "absolute": 1737,
      "Cler": 1738,
      "ather": 1739,
      "evil": 1740,
      "ual": 1741,
      "wand": 1742,
      "instru": 1743,
      "bered": 1744,
      "sole": 1745,
      "irt": 1746,
      "shook": 1747,
      "produ": 1748,
      "cially": 1749,
      "bling": 1750,
      "vice": 1751,
      "rence": 1752,
      "remain": 1753,
      "different": 1754,
      "increas": 1755,
      "pretty": 1756,
      "escape": 1757,
      "bir": 1758,
      "cing": 1759,
      "ds": 1760,
      "lit": 1761,
      "sad": 1762,
      "tone": 1763,
      "tom": 1764,
      "pet": 1765,
      "bot": 1766,
      "anybody": 1767,
      "sigh": 1768,
      "thank": 1769,
      "standing": 1770,
      "breath": 1771,
      "ceive": 1772,
      "talking": 1773,
      "suffi": 1774,
      "company": 1775,
      "Turtle": 1776,
      "Clerval": 1777,
      "Of": 1778,
      "Vane": 1779,
      "bow": 1780,
      "fence": 1781,
      "pir": 1782,
      "wit": 1783,
      "anx": 1784,
      "inhabit": 1785,
      "aring": 1786,
      "lives": 1787,
      "impossible": 1788,
      "These": 1789,
      "common": 1790,
      "plan": 1791,
      "vol": 1792,
      "natural": 1793,
      "portrait": 1794,
      "phon": 1795,
      "middle": 1796,
      "changed": 1797,
      "Come": 1798,
      "cand": 1799,
      "ctor": 1800,
      "eli": 1801,
      "fli": 1802,
      "mut": 1803,
      "simp": 1804,
      "inary": 1805,
      "river": 1806,
      "dec": 1807,
      "exclaimed": 1808,
      "fact": 1809,
      "sive": 1810,
      "placed": 1811,
      "fles": 1812,
      "direct": 1813,
      "fresh": 1814,
      "reached": 1815,
      "Ch": 1816,
      "bs": 1817,
      "fish": 1818,
      "fine": 1819,
      "ie": 1820,
      "rust": 1821,
      "var": 1822,
      "yer": 1823,
      "thick": 1824,
      "inno": 1825,
      "meet": 1826,
      "cher": 1827,
      "forward": 1828,
      "ioned": 1829,
      "raz": 1830,
      "raft": 1831,
      "experi": 1832,
      "move": 1833,
      "ical": 1834,
      "clock": 1835,
      "emplo": 1836,
      "conscious": 1837,
      "appre": 1838,
      "minute": 1839,
      "iously": 1840,
      "murder": 1841,
      "purpose": 1842,
      "Mock": 1843,
      "Justine": 1844,
      "Aunt": 1845,
      "Gry": 1846,
      "Hatter": 1847,
      "drow": 1848,
      "event": 1849,
      "fool": 1850,
      "mouse": 1851,
      "opp": 1852,
      "rate": 1853,
      "wid": 1854,
      "relie": 1855,
      "lead": 1856,
      "ching": 1857,
      "pered": 1858,
      "post": 1859,
      "exam": 1860,
      "exist": 1861,
      "glass": 1862,
      "bitter": 1863,
      "quiet": 1864,
      "occup": 1865,
      "chief": 1866,
      "green": 1867,
      "calm": 1868,
      "family": 1869,
      "mountains": 1870,
      "quickly": 1871,
      "Spani": 1872,
      "Duchess": 1873,
      "Gryphon": 1874,
      "Par": 1875,
      "aunt": 1876,
      "ines": 1877,
      "attempt": 1878,
      "edge": 1879,
      "ased": 1880,
      "ities": 1881,
      "mes": 1882,
      "bey": 1883,
      "noon": 1884,
      "ung": 1885,
      "tern": 1886,
      "tive": 1887,
      "perceived": 1888,
      "arer": 1889,
      "pping": 1890,
      "hopes": 1891,
      "blue": 1892,
      "longer": 1893,
      "counten": 1894,
      "pleased": 1895,
      "sens": 1896,
      "lady": 1897,
      "easily": 1898,
      "returned": 1899,
      "surprise": 1900,
      "appearance": 1901,
      "beginning": 1902,
      "hideous": 1903,
      "De": 1904,
      "Ha": 1905,
      "fain": 1906,
      "kne": 1907,
      "main": 1908,
      "makes": 1909,
      "num": 1910,
      "twi": 1911,
      "ention": 1912,
      "saved": 1913,
      "terri": 1914,
      "box": 1915,
      "aked": 1916,
      "prof": 1917,
      "remained": 1918,
      "misfortun": 1919,
      "merely": 1920,
      "season": 1921,
      "journey": 1922,
      "especially": 1923,
      "storm": 1924,
      "absolutely": 1925,
      "Al": 1926,
      "Is": 1927,
      "kni": 1928,
      "langu": 1929,
      "tide": 1930,
      "ues": 1931,
      "asc": 1932,
      "termin": 1933,
      "ager": 1934,
      "ult": 1935,
      "aren": 1936,
      "moments": 1937,
      "pleasant": 1938,
      "otter": 1939,
      "chair": 1940,
      "laughed": 1941,
      "imagination": 1942,
      "wretched": 1943,
      "Polly": 1944,
      "necessary": 1945,
      "obliged": 1946,
      "elix": 1947,
      "simply": 1948,
      "Ah": 1949,
      "Pres": 1950,
      "dress": 1951,
      "ging": 1952,
      "glo": 1953,
      "mn": 1954,
      "mber": 1955,
      "sof": 1956,
      "tent": 1957,
      "wed": 1958,
      "wound": 1959,
      "zing": 1960,
      "anim": 1961,
      "iment": 1962,
      "depart": 1963,
      "devil": 1964,
      "abbit": 1965,
      "key": 1966,
      "ilt": 1967,
      "exc": 1968,
      "law": 1969,
      "ously": 1970,
      "acqu": 1971,
      "saying": 1972,
      "cured": 1973,
      "clear": 1974,
      "shadow": 1975,
      "arrived": 1976,
      "cottage": 1977,
      "steps": 1978,
      "difficulty": 1979,
      "Fran": 1980,
      "Felix": 1981,
      "Per": 1982,
      "Potter": 1983,
      "mag": 1984,
      "sand": 1985,
      "wo": 1986,
      "yes": 1987,
      "sequ": 1988,
      "utter": 1989,
      "dep": 1990,
      "ties": 1991,
      "conside": 1992,
      "convers": 1993,
      "exe": 1994,
      "exer": 1995,
      "greatest": 1996,
      "ices": 1997,
      "grat": 1998,
      "understood": 1999,
      "super": 2000,
      "spot": 2001,
      "remembered": 2002,
      "confess": 2003,
      "circumstances": 2004,
      "occurred": 2005,
      "flesh": 2006,
      "considered": 2007,
      "cro": 2008,
      "dut": 2009,
      "sitting": 2010,
      "memor": 2011,
      "belong": 2012,
      "determin": 2013,
      "concl": 2014,
      "coast": 2015,
      "iff": 2016,
      "pers": 2017,
      "worth": 2018,
      "ants": 2019,
      "cip": 2020,
      "assist": 2021,
      "design": 2022,
      "remark": 2023,
      "letter": 2024,
      "phy": 2025,
      "struck": 2026,
      "sorry": 2027,
      "spirit": 2028,
      "scarce": 2029,
      "appreh": 2030,
      "),": 2031,
      "Good": 2032,
      "bright": 2033,
      "bene": 2034,
      "din": 2035,
      "ded": 2036,
      "anced": 2037,
      "rew": 2038,
      "ature": 2039,
      "hes": 2040,
      "search": 2041,
      "living": 2042,
      "ality": 2043,
      "history": 2044,
      "ries": 2045,
      "fet": 2046,
      "showed": 2047,
      "worse": 2048,
      "seem": 2049,
      "favour": 2050,
      "rum": 2051,
      "bless": 2052,
      "position": 2053,
      "prin": 2054,
      "object": 2055,
      "awful": 2056,
      "accord": 2057,
      "approach": 2058,
      "sufficient": 2059,
      "knife": 2060,
      "Braz": 2061,
      "Did": 2062,
      "cus": 2063,
      "cree": 2064,
      "eager": 2065,
      "fle": 2066,
      "mi": 2067,
      "pity": 2068,
      "sim": 2069,
      "snow": 2070,
      "repe": 2071,
      "ided": 2072,
      "ago": 2073,
      "tily": 2074,
      "iling": 2075,
      "quis": 2076,
      "moon": 2077,
      "discover": 2078,
      "courage": 2079,
      "farther": 2080,
      "north": 2081,
      "current": 2082,
      "choly": 2083,
      "savage": 2084,
      "whispered": 2085,
      "week": 2086,
      "deliverance": 2087,
      "fif": 2088,
      "pun": 2089,
      "wished": 2090,
      "stri": 2091,
      "chance": 2092,
      "weather": 2093,
      "cket": 2094,
      "nearer": 2095,
      "ility": 2096,
      "ption": 2097,
      "mighty": 2098,
      "mured": 2099,
      "early": 2100,
      "chest": 2101,
      "content": 2102,
      "quired": 2103,
      "waited": 2104,
      "temper": 2105,
      "leaves": 2106,
      "trust": 2107,
      "learned": 2108,
      "countenance": 2109,
      "Presently": 2110,
      "execut": 2111,
      "Rabbit": 2112,
      "cab": 2113,
      "een": 2114,
      "fron": 2115,
      "gree": 2116,
      "na": 2117,
      "sister": 2118,
      "iss": 2119,
      "melan": 2120,
      "stair": 2121,
      "vern": 2122,
      "forgot": 2123,
      "aled": 2124,
      "degree": 2125,
      "abroad": 2126,
      "fixed": 2127,
      "ears": 2128,
      "ordinary": 2129,
      "cheer": 2130,
      "closed": 2131,
      "wait": 2132,
      "tale": 2133,
      "besides": 2134,
      "music": 2135,
      "study": 2136,
      "colour": 2137,
      "extreme": 2138,
      "osity": 2139,
      "beyond": 2140,
      "melancholy": 2141,
      ".’": 2142,
      "May": 2143,
      "St": 2144,
      "band": 2145,
      "gs": 2146,
      "hate": 2147,
      "jum": 2148,
      "threw": 2149,
      "isto": 2150,
      "meant": 2151,
      "hall": 2152,
      "stret": 2153,
      "stren": 2154,
      "ution": 2155,
      "former": 2156,
      "shut": 2157,
      "ket": 2158,
      "amed": 2159,
      "extra": 2160,
      "teen": 2161,
      "spring": 2162,
      "thinking": 2163,
      "tingu": 2164,
      "supp": 2165,
      "Thatcher": 2166,
      "murmured": 2167,
      "fallen": 2168,
      "expected": 2169,
      "companion": 2170,
      "usual": 2171,
      "memory": 2172,
      "Bes": 2173,
      "fut": 2174,
      "fasc": 2175,
      "mark": 2176,
      "warm": 2177,
      "ley": 2178,
      "liar": 2179,
      "conce": 2180,
      "motion": 2181,
      "worked": 2182,
      "proceed": 2183,
      "preser": 2184,
      "deser": 2185,
      "court": 2186,
      "smile": 2187,
      "lovely": 2188,
      "painter": 2189,
      "attention": 2190,
      "running": 2191,
      "suffer": 2192,
      "driven": 2193,
      "sweet": 2194,
      "promise": 2195,
      "promised": 2196,
      "possessed": 2197,
      "grief": 2198,
      "streng": 2199,
      "Li": 2200,
      "Mary": 2201,
      "Upon": 2202,
      "Where": 2203,
      "With": 2204,
      "ges": 2205,
      "kno": 2206,
      "twel": 2207,
      "wreck": 2208,
      "zz": 2209,
      "incl": 2210,
      "reve": 2211,
      "seven": 2212,
      "riage": 2213,
      "shud": 2214,
      "ague": 2215,
      "consequ": 2216,
      "covery": 2217,
      "persu": 2218,
      "provis": 2219,
      "spread": 2220,
      "blow": 2221,
      "viz": 2222,
      "pale": 2223,
      "distress": 2224,
      "delivered": 2225,
      "hurried": 2226,
      "frightened": 2227,
      "destroyed": 2228,
      "society": 2229,
      "thankful": 2230,
      "front": 2231,
      "Besides": 2232,
      "twelve": 2233,
      "Gene": 2234,
      "Lon": 2235,
      "Vic": 2236,
      "bas": 2237,
      "blo": 2238,
      "fun": 2239,
      "lu": 2240,
      "miles": 2241,
      "rage": 2242,
      "send": 2243,
      "received": 2244,
      "ences": 2245,
      "itions": 2246,
      "wash": 2247,
      "rot": 2248,
      "rope": 2249,
      "allow": 2250,
      "tools": 2251,
      "prob": 2252,
      "proved": 2253,
      "bles": 2254,
      "earnest": 2255,
      "chee": 2256,
      "stead": 2257,
      "corner": 2258,
      "suffered": 2259,
      "silent": 2260,
      "wrong": 2261,
      "learn": 2262,
      "destroy": 2263,
      "satisfied": 2264,
      "complete": 2265,
      "pointed": 2266,
      "London": 2267,
      "Dor": 2268,
      "March": 2269,
      "alive": 2270,
      "bout": 2271,
      "cross": 2272,
      "ding": 2273,
      "ier": 2274,
      "iam": 2275,
      "pull": 2276,
      "pisto": 2277,
      "rag": 2278,
      "win": 2279,
      "thor": 2280,
      "resu": 2281,
      "revenge": 2282,
      "assa": 2283,
      "ordered": 2284,
      "idly": 2285,
      "wife": 2286,
      "wicked": 2287,
      "shout": 2288,
      "goat": 2289,
      "ific": 2290,
      "whatever": 2291,
      "hot": 2292,
      "artist": 2293,
      "fic": 2294,
      "willing": 2295,
      "places": 2296,
      "ump": 2297,
      "pared": 2298,
      "cloud": 2299,
      "conscience": 2300,
      "surround": 2301,
      "uded": 2302,
      "waiting": 2303,
      "enemy": 2304,
      "murdered": 2305,
      "Mrs": 2306,
      "engaged": 2307,
      "fortunate": 2308,
      "signs": 2309,
      "expression": 2310,
      "smoke": 2311,
      "fingers": 2312,
      "conversation": 2313,
      "strength": 2314,
      "Dormouse": 2315,
      "Or": 2316,
      "ali": 2317,
      "big": 2318,
      "dim": 2319,
      "hus": 2320,
      "hood": 2321,
      "line": 2322,
      "pit": 2323,
      "tly": 2324,
      "vation": 2325,
      "virt": 2326,
      "intell": 2327,
      "offered": 2328,
      "beast": 2329,
      "noise": 2330,
      "advant": 2331,
      "outside": 2332,
      "succ": 2333,
      "coat": 2334,
      "pocket": 2335,
      "tea": 2336,
      "gled": 2337,
      "giving": 2338,
      "watched": 2339,
      "turning": 2340,
      "support": 2341,
      "sought": 2342,
      "delightful": 2343,
      "summer": 2344,
      "third": 2345,
      "particularly": 2346,
      "honest": 2347,
      "further": 2348,
      "William": 2349,
      "swim": 2350,
      "solemn": 2351,
      "twice": 2352,
      "acquain": 2353,
      "determined": 2354,
      "future": 2355,
      "Geneva": 2356,
      "bour": 2357,
      "blic": 2358,
      "dare": 2359,
      "ming": 2360,
      "mile": 2361,
      "pra": 2362,
      "sla": 2363,
      "tur": 2364,
      "ught": 2365,
      "tha": 2366,
      "influ": 2367,
      "som": 2368,
      "allowed": 2369,
      "iron": 2370,
      "rich": 2371,
      "riosity": 2372,
      "dem": 2373,
      "oose": 2374,
      "neck": 2375,
      "usion": 2376,
      "faith": 2377,
      "fired": 2378,
      "fiend": 2379,
      "rush": 2380,
      "greater": 2381,
      "desired": 2382,
      "Not": 2383,
      "supposed": 2384,
      "join": 2385,
      "scre": 2386,
      "painted": 2387,
      "vided": 2388,
      "grace": 2389,
      "excell": 2390,
      "sky": 2391,
      "direction": 2392,
      "trying": 2393,
      "habitation": 2394,
      "dropped": 2395,
      "describe": 2396,
      "quarter": 2397,
      "experience": 2398,
      "Spaniard": 2399,
      "duty": 2400,
      "Aga": 2401,
      "From": 2402,
      "Pro": 2403,
      "ben": 2404,
      "dom": 2405,
      "fra": 2406,
      "ield": 2407,
      "ju": 2408,
      "jury": 2409,
      "mal": 2410,
      "nation": 2411,
      "sl": 2412,
      "test": 2413,
      "uff": 2414,
      "thed": 2415,
      "antic": 2416,
      "infin": 2417,
      "reli": 2418,
      "seized": 2419,
      "leep": 2420,
      "stick": 2421,
      "alley": 2422,
      "exact": 2423,
      "moder": 2424,
      "aston": 2425,
      "disap": 2426,
      "fig": 2427,
      "mentioned": 2428,
      "passions": 2429,
      "monstr": 2430,
      "contri": 2431,
      "sett": 2432,
      "maybe": 2433,
      "curiosity": 2434,
      "Harper": 2435,
      "sins": 2436,
      "silver": 2437,
      "exceed": 2438,
      "charac": 2439,
      "slowly": 2440,
      "widow": 2441,
      "Victor": 2442,
      "success": 2443,
      "Agatha": 2444,
      "Ar": 2445,
      "Your": 2446,
      "dressed": 2447,
      "equ": 2448,
      "fow": 2449,
      "fted": 2450,
      "mir": 2451,
      "sn": 2452,
      "yards": 2453,
      "yield": 2454,
      "thered": 2455,
      "asleep": 2456,
      "health": 2457,
      "lling": 2458,
      "lean": 2459,
      "ids": 2460,
      "myster": 2461,
      "cks": 2462,
      "cking": 2463,
      "agony": 2464,
      "faces": 2465,
      "While": 2466,
      "firm": 2467,
      "fled": 2468,
      "monster": 2469,
      "happen": 2470,
      "tort": 2471,
      "stepped": 2472,
      "stranger": 2473,
      "trave": 2474,
      "destru": 2475,
      "slept": 2476,
      "grown": 2477,
      "listened": 2478,
      "frequ": 2479,
      "weeks": 2480,
      "judge": 2481,
      "yellow": 2482,
      "candle": 2483,
      "various": 2484,
      "apprehens": 2485,
      "quisite": 2486,
      "stairs": 2487,
      "Amer": 2488,
      "Saw": 2489,
      "Two": 2490,
      "cous": 2491,
      "fly": 2492,
      "gare": 2493,
      "ial": 2494,
      "kes": 2495,
      "ssed": 2496,
      "situ": 2497,
      "science": 2498,
      "treas": 2499,
      "thro": 2500,
      "thee": 2501,
      "recovered": 2502,
      "assu": 2503,
      "stra": 2504,
      "lip": 2505,
      "wear": 2506,
      "weak": 2507,
      "forth": 2508,
      "import": 2509,
      "save": 2510,
      "shoot": 2511,
      "neigh": 2512,
      "cting": 2513,
      "consol": 2514,
      "log": 2515,
      "lose": 2516,
      "ama": 2517,
      "raised": 2518,
      "couldn": 2519,
      "discovery": 2520,
      "ishing": 2521,
      "ishment": 2522,
      "prote": 2523,
      "spl": 2524,
      "comes": 2525,
      "isted": 2526,
      "ortun": 2527,
      "justice": 2528,
      "Nothing": 2529,
      "smiled": 2530,
      "hilo": 2531,
      "please": 2532,
      "distur": 2533,
      "believed": 2534,
      "visible": 2535,
      "watching": 2536,
      "drag": 2537,
      "gentleman": 2538,
      "public": 2539,
      "endeavour": 2540,
      "endeavoured": 2541,
      "wandered": 2542,
      "existence": 2543,
      "Paris": 2544,
      "Providence": 2545,
      "infinite": 2546,
      "Ameri": 2547,
      "Fin": 2548,
      "Jim": 2549,
      "Mon": 2550,
      "Sun": 2551,
      "Was": 2552,
      "bac": 2553,
      "clim": 2554,
      "fro": 2555,
      "pound": 2556,
      "pill": 2557,
      "philo": 2558,
      "taught": 2559,
      "на": 2560,
      "iny": 2561,
      "instead": 2562,
      "separ": 2563,
      "star": 2564,
      "derer": 2565,
      "notice": 2566,
      "caused": 2567,
      "exhi": 2568,
      "expressed": 2569,
      "exquisite": 2570,
      "seek": 2571,
      "canv": 2572,
      "presence": 2573,
      "grand": 2574,
      "stock": 2575,
      "horse": 2576,
      "joined": 2577,
      "married": 2578,
      "murderer": 2579,
      "presented": 2580,
      "interrup": 2581,
      "hurt": 2582,
      "reflections": 2583,
      "castle": 2584,
      "wretch": 2585,
      "drink": 2586,
      "admir": 2587,
      "witness": 2588,
      "sensations": 2589,
      "husband": 2590,
      "advantage": 2591,
      "monstrous": 2592,
      "destruction": 2593,
      "Sawyer": 2594,
      "philoso": 2595,
      "exhibit": 2596,
      "Alan": 2597,
      "Say": 2598,
      "bra": 2599,
      "coun": 2600,
      "cra": 2601,
      "fight": 2602,
      "fla": 2603,
      "ian": 2604,
      "loud": 2605,
      "oh": 2606,
      "treat": 2607,
      "vast": 2608,
      "retired": 2609,
      "ising": 2610,
      "meas": 2611,
      "ham": 2612,
      "beat": 2613,
      "forced": 2614,
      "dev": 2615,
      "agree": 2616,
      "pect": 2617,
      "caught": 2618,
      "constant": 2619,
      "resto": 2620,
      "field": 2621,
      "div": 2622,
      "iced": 2623,
      "vict": 2624,
      "vessel": 2625,
      "serious": 2626,
      "speed": 2627,
      "putting": 2628,
      "guide": 2629,
      "marriage": 2630,
      "write": 2631,
      "played": 2632,
      "dreams": 2633,
      "rocks": 2634,
      "Sometimes": 2635,
      "crept": 2636,
      "floor": 2637,
      "rising": 2638,
      "cruel": 2639,
      "tranqu": 2640,
      "Brazils": 2641,
      "excellent": 2642,
      "figure": 2643,
      "cousin": 2644,
      "Ro": 2645,
      "Xury": 2646,
      "ban": 2647,
      "bag": 2648,
      "dance": 2649,
      "dull": 2650,
      "east": 2651,
      "hast": 2652,
      "ient": 2653,
      "mour": 2654,
      "ners": 2655,
      "nice": 2656,
      "pse": 2657,
      "slight": 2658,
      "vain": 2659,
      "thunder": 2660,
      "reed": 2661,
      "arrow": 2662,
      "stone": 2663,
      "nobody": 2664,
      "chur": 2665,
      "ceased": 2666,
      "alter": 2667,
      "rill": 2668,
      "fee": 2669,
      "susp": 2670,
      "quant": 2671,
      "arts": 2672,
      "knowing": 2673,
      "everybody": 2674,
      "landed": 2675,
      "ships": 2676,
      "stop": 2677,
      "hastily": 2678,
      "horrid": 2679,
      "consent": 2680,
      "sooner": 2681,
      "native": 2682,
      "senses": 2683,
      "crime": 2684,
      "sunk": 2685,
      "duchess": 2686,
      "truth": 2687,
      "skin": 2688,
      "accident": 2689,
      "cats": 2690,
      "books": 2691,
      "ggest": 2692,
      "bestow": 2693,
      "Poor": 2694,
      "stream": 2695,
      "burst": 2696,
      "touch": 2697,
      "touched": 2698,
      "charming": 2699,
      "plantation": 2700,
      "hanging": 2701,
      "cabin": 2702,
      "fascin": 2703,
      "quantity": 2704,
      "Er": 2705,
      "Hare": 2706,
      "Un": 2707,
      "bid": 2708,
      "bull": 2709,
      "ect": 2710,
      "ny": 2711,
      "passa": 2712,
      "sides": 2713,
      "zen": 2714,
      "—“": 2715,
      "remo": 2716,
      "enced": 2717,
      "astic": 2718,
      "heat": 2719,
      "cept": 2720,
      "wet": 2721,
      "weight": 2722,
      "ference": 2723,
      "agers": 2724,
      "kets": 2725,
      "goats": 2726,
      "ament": 2727,
      "rap": 2728,
      "ruin": 2729,
      "knows": 2730,
      "prove": 2731,
      "rank": 2732,
      "afternoon": 2733,
      "glanced": 2734,
      "grass": 2735,
      "shame": 2736,
      "flung": 2737,
      "cargo": 2738,
      "store": 2739,
      "kindness": 2740,
      "brain": 2741,
      "merch": 2742,
      "condu": 2743,
      "keeping": 2744,
      "growing": 2745,
      "laughing": 2746,
      "reflection": 2747,
      "darkness": 2748,
      "coloured": 2749,
      "generally": 2750,
      "increased": 2751,
      "innocent": 2752,
      "employed": 2753,
      "opportun": 2754,
      "Perhaps": 2755,
      "fetch": 2756,
      "stretched": 2757,
      "supply": 2758,
      "straight": 2759,
      "17": 2760,
      "Even": 2761,
      "Mouse": 2762,
      "fate": 2763,
      "fash": 2764,
      "gle": 2765,
      "gest": 2766,
      "ize": 2767,
      "lat": 2768,
      "nay": 2769,
      "sal": 2770,
      "squ": 2771,
      "tim": 2772,
      "tong": 2773,
      "talked": 2774,
      "uch": 2775,
      "vul": 2776,
      "ying": 2777,
      "ла": 2778,
      "thin": 2779,
      "thither": 2780,
      "toward": 2781,
      "tobac": 2782,
      "ism": 2783,
      "beheld": 2784,
      "stro": 2785,
      "idence": 2786,
      "unhappy": 2787,
      "devo": 2788,
      "poison": 2789,
      "White": 2790,
      "rushed": 2791,
      "looks": 2792,
      "likely": 2793,
      "desol": 2794,
      "useful": 2795,
      "apart": 2796,
      "berry": 2797,
      "contr": 2798,
      "scen": 2799,
      "south": 2800,
      "laught": 2801,
      "continually": 2802,
      "reality": 2803,
      "whisper": 2804,
      "thirty": 2805,
      "stirred": 2806,
      "thrown": 2807,
      "walking": 2808,
      "birds": 2809,
      "directly": 2810,
      "language": 2811,
      "dinner": 2812,
      "simple": 2813,
      "intellect": 2814,
      "canvas": 2815,
      "church": 2816,
      "tobacco": 2817,
      "Can": 2818,
      "During": 2819,
      "Ge": 2820,
      "Rob": 2821,
      "bal": 2822,
      "cas": 2823,
      "cook": 2824,
      "evidence": 2825,
      "fond": 2826,
      "hum": 2827,
      "iety": 2828,
      "ky": 2829,
      "kis": 2830,
      "mate": 2831,
      "nine": 2832,
      "pin": 2833,
      "pay": 2834,
      "sion": 2835,
      "ws": 2836,
      "winter": 2837,
      "“‘": 2838,
      "inst": 2839,
      "leberry": 2840,
      "ford": 2841,
      "unfortunate": 2842,
      "shar": 2843,
      "ourselves": 2844,
      "loaded": 2845,
      "shel": 2846,
      "tee": 2847,
      "hole": 2848,
      "otherwise": 2849,
      "prospect": 2850,
      "rench": 2851,
      "telling": 2852,
      "Huckleberry": 2853,
      "prepared": 2854,
      "attack": 2855,
      "leaving": 2856,
      "visit": 2857,
      "names": 2858,
      "drive": 2859,
      "command": 2860,
      "directed": 2861,
      "hurry": 2862,
      "tail": 2863,
      "trial": 2864,
      "fami": 2865,
      "escaped": 2866,
      "general": 2867,
      "regret": 2868,
      "prisoners": 2869,
      "breakfast": 2870,
      "bottom": 2871,
      "relief": 2872,
      "occupied": 2873,
      "number": 2874,
      "provisions": 2875,
      "garet": 2876,
      "laughter": 2877,
      "Cat": 2878,
      "Camp": 2879,
      "French": 2880,
      "Look": 2881,
      "Never": 2882,
      "furn": 2883,
      "gin": 2884,
      "hedge": 2885,
      "ience": 2886,
      "vin": 2887,
      "west": 2888,
      "rec": 2889,
      "rely": 2890,
      "eness": 2891,
      "hesit": 2892,
      "ese": 2893,
      "stup": 2894,
      "chor": 2895,
      "lifted": 2896,
      "degre": 2897,
      "tick": 2898,
      "pot": 2899,
      "using": 2900,
      "teach": 2901,
      "mock": 2902,
      "hollow": 2903,
      "hoped": 2904,
      "urely": 2905,
      "comr": 2906,
      "canoe": 2907,
      "dig": 2908,
      "reading": 2909,
      "desc": 2910,
      "shape": 2911,
      "lightning": 2912,
      "passing": 2913,
      "wondered": 2914,
      "letters": 2915,
      "heads": 2916,
      "setting": 2917,
      "tained": 2918,
      "stein": 2919,
      "interesting": 2920,
      "doesn": 2921,
      "swear": 2922,
      "troubled": 2923,
      "hunger": 2924,
      "midnight": 2925,
      "studi": 2926,
      "comfortable": 2927,
      "anguish": 2928,
      "satisfa": 2929,
      "honour": 2930,
      "violence": 2931,
      "bottle": 2932,
      "drowned": 2933,
      "misfortunes": 2934,
      "jumped": 2935,
      "extraordinary": 2936,
      "surrounded": 2937,
      "influence": 2938,
      "character": 2939,
      "Sunday": 2940,
      "pillar": 2941,
      "Robin": 2942,
      "sharp": 2943,
      "Campbell": 2944,
      "degrees": 2945,
      "!—": 2946,
      "Ben": 2947,
      "Cater": 2948,
      "Pe": 2949,
      "Se": 2950,
      "bade": 2951,
      "brow": 2952,
      "dam": 2953,
      "frow": 2954,
      "gall": 2955,
      "gain": 2956,
      "gged": 2957,
      "lst": 2958,
      "mit": 2959,
      "pal": 2960,
      "rin": 2961,
      "sink": 2962,
      "tions": 2963,
      "wore": 2964,
      "thod": 2965,
      "thrust": 2966,
      "oned": 2967,
      "aste": 2968,
      "aside": 2969,
      "ises": 2970,
      "itary": 2971,
      "method": 2972,
      "liber": 2973,
      "hadn": 2974,
      "impress": 2975,
      "ades": 2976,
      "unable": 2977,
      "note": 2978,
      "sake": 2979,
      "agit": 2980,
      "tian": 2981,
      "gover": 2982,
      "romantic": 2983,
      "ulous": 2984,
      "fail": 2985,
      "distingu": 2986,
      "acle": 2987,
      "greatly": 2988,
      "shoulder": 2989,
      "shoulders": 2990,
      "blind": 2991,
      "news": 2992,
      "goods": 2993,
      "moral": 2994,
      "hither": 2995,
      "udge": 2996,
      "spoiled": 2997,
      "ignor": 2998,
      "observe": 2999,
      "kenstein": 3000,
      "repent": 3001,
      "interested": 3002,
      "double": 3003,
      "reflected": 3004,
      "deeply": 3005,
      "flowers": 3006,
      "eleven": 3007,
      "daily": 3008,
      "instantly": 3009,
      "sympa": 3010,
      "inhabited": 3011,
      "Have": 3012,
      "wounded": 3013,
      "Frankenstein": 3014,
      "exerc": 3015,
      "concluded": 3016,
      "scarcely": 3017,
      "repeated": 3018,
      "execution": 3019,
      "exactly": 3020,
      "settled": 3021,
      "treasure": 3022,
      "pounds": 3023,
      "opportunity": 3024,
      "Caterpillar": 3025,
      "Go": 3026,
      "Re": 3027,
      "Sh": 3028,
      "ah": 3029,
      "bon": 3030,
      "bbed": 3031,
      "bury": 3032,
      "cred": 3033,
      "cure": 3034,
      "ell": 3035,
      "fering": 3036,
      "gers": 3037,
      "lest": 3038,
      "lines": 3039,
      "loose": 3040,
      "mast": 3041,
      "ost": 3042,
      "pup": 3043,
      "ram": 3044,
      "sne": 3045,
      "ub": 3046,
      "wro": 3047,
      "wide": 3048,
      "то": 3049,
      "threat": 3050,
      "inct": 3051,
      "recolle": 3052,
      "ening": 3053,
      "orn": 3054,
      "arse": 3055,
      "below": 3056,
      "wasn": 3057,
      "rodu": 3058,
      "ads": 3059,
      "adventure": 3060,
      "agreed": 3061,
      "negro": 3062,
      "tied": 3063,
      "bye": 3064,
      "loa": 3065,
      "loss": 3066,
      "somebody": 3067,
      "excess": 3068,
      "ulse": 3069,
      "illy": 3070,
      "worn": 3071,
      "whence": 3072,
      "endured": 3073,
      "affli": 3074,
      "itten": 3075,
      "forest": 3076,
      "acy": 3077,
      "canoes": 3078,
      "cies": 3079,
      "blew": 3080,
      "ics": 3081,
      "gling": 3082,
      "grad": 3083,
      "paper": 3084,
      "introdu": 3085,
      "apparen": 3086,
      "finding": 3087,
      "marve": 3088,
      "ladder": 3089,
      "following": 3090,
      "value": 3091,
      "dreadfully": 3092,
      "girls": 3093,
      "plainly": 3094,
      "limbs": 3095,
      "orders": 3096,
      "flower": 3097,
      "concerning": 3098,
      "fulf": 3099,
      "produced": 3100,
      "events": 3101,
      "foolish": 3102,
      "approached": 3103,
      "creek": 3104,
      "forgotten": 3105,
      "cheerful": 3106,
      "shudder": 3107,
      "frame": 3108,
      "consolation": 3109,
      "devoured": 3110,
      "passage": 3111,
      "familiar": 3112,
      "wrote": 3113,
      ":—": 3114,
      "Had": 3115,
      "Ju": 3116,
      "Judge": 3117,
      "Mar": 3118,
      "Our": 3119,
      "Saf": 3120,
      "Sud": 3121,
      "ba": 3122,
      "bore": 3123,
      "cou": 3124,
      "cence": 3125,
      "daught": 3126,
      "fant": 3127,
      "latter": 3128,
      "oper": 3129,
      "tame": 3130,
      "wis": 3131,
      "thread": 3132,
      "theat": 3133,
      "regard": 3134,
      "enem": 3135,
      "hell": 3136,
      "armed": 3137,
      "arran": 3138,
      "arily": 3139,
      "seed": 3140,
      "beloved": 3141,
      "roof": 3142,
      "weep": 3143,
      "wealth": 3144,
      "rice": 3145,
      "une": 3146,
      "abhor": 3147,
      "suc": 3148,
      "cost": 3149,
      "race": 3150,
      "mankind": 3151,
      "manners": 3152,
      "exper": 3153,
      "explain": 3154,
      "indif": 3155,
      "lake": 3156,
      "asted": 3157,
      "discourse": 3158,
      "sible": 3159,
      "spare": 3160,
      "cial": 3161,
      "retreat": 3162,
      "flat": 3163,
      "umph": 3164,
      "tedious": 3165,
      "angry": 3166,
      "pause": 3167,
      "remind": 3168,
      "solitary": 3169,
      "spee": 3170,
      "smiling": 3171,
      "denly": 3172,
      "prevent": 3173,
      "marked": 3174,
      "resolution": 3175,
      "runk": 3176,
      "suffering": 3177,
      "commun": 3178,
      "guns": 3179,
      "circle": 3180,
      "gging": 3181,
      "....": 3182,
      "fellows": 3183,
      "trembled": 3184,
      "trembling": 3185,
      "companions": 3186,
      "effects": 3187,
      "capable": 3188,
      "possession": 3189,
      "street": 3190,
      "prayer": 3191,
      "burning": 3192,
      "swam": 3193,
      "vengeance": 3194,
      "crowd": 3195,
      "branches": 3196,
      "employ": 3197,
      "terribly": 3198,
      "misfortune": 3199,
      "gloom": 3200,
      "departed": 3201,
      "accordingly": 3202,
      "chests": 3203,
      "proceeded": 3204,
      "result": 3205,
      "acquainted": 3206,
      "modern": 3207,
      "disturbed": 3208,
      "victim": 3209,
      "kissed": 3210,
      "liberty": 3211,
      "Safie": 3212,
      "Suddenly": 3213,
      "enemies": 3214,
      "?—": 3215,
      "Eu": 3216,
      "Him": 3217,
      "Nar": 3218,
      "Sir": 3219,
      "Tell": 3220,
      "dwell": 3221,
      "dared": 3222,
      "gay": 3223,
      "ius": 3224,
      "luck": 3225,
      "mil": 3226,
      "mood": 3227,
      "non": 3228,
      "phe": 3229,
      "anno": 3230,
      "anchor": 3231,
      "ining": 3232,
      "atory": 3233,
      "orse": 3234,
      "hea": 3235,
      "argu": 3236,
      "haz": 3237,
      "seld": 3238,
      "seam": 3239,
      "secured": 3240,
      "nose": 3241,
      "force": 3242,
      "entreat": 3243,
      "altered": 3244,
      "noticed": 3245,
      "tiv": 3246,
      "suggest": 3247,
      "caut": 3248,
      "conven": 3249,
      "ified": 3250,
      "romance": 3251,
      "expl": 3252,
      "quitted": 3253,
      "mode": 3254,
      "rud": 3255,
      "provided": 3256,
      "rang": 3257,
      "flash": 3258,
      "gious": 3259,
      "partly": 3260,
      "empt": 3261,
      "morrow": 3262,
      "broad": 3263,
      "guest": 3264,
      "marry": 3265,
      "waves": 3266,
      "attle": 3267,
      "younger": 3268,
      "traged": 3269,
      "barley": 3270,
      "subtle": 3271,
      "secure": 3272,
      "buried": 3273,
      "higher": 3274,
      "impat": 3275,
      "imagined": 3276,
      "catch": 3277,
      "triumph": 3278,
      "sounds": 3279,
      "charge": 3280,
      "pointment": 3281,
      "lication": 3282,
      "creation": 3283,
      "III": 3284,
      "violent": 3285,
      "fatal": 3286,
      "heavens": 3287,
      "Having": 3288,
      "profess": 3289,
      "gratitude": 3290,
      "extremely": 3291,
      "lux": 3292,
      "cheeks": 3293,
      "apprehensions": 3294,
      "situation": 3295,
      "tongue": 3296,
      "sympathy": 3297,
      "speech": 3298,
      "Europe": 3299,
      "seldom": 3300,
      "18": 3301,
      "avo": 3302,
      "bare": 3303,
      "cup": 3304,
      "cate": 3305,
      "dust": 3306,
      "etern": 3307,
      "hy": 3308,
      "hit": 3309,
      "hous": 3310,
      "iable": 3311,
      "kid": 3312,
      "mp": 3313,
      "mach": 3314,
      "por": 3315,
      "sca": 3316,
      "swall": 3317,
      "uous": 3318,
      "vit": 3319,
      "yard": 3320,
      "inqu": 3321,
      "ative": 3322,
      "ashes": 3323,
      "sem": 3324,
      "seat": 3325,
      "stained": 3326,
      "sold": 3327,
      "wept": 3328,
      "forti": 3329,
      "forty": 3330,
      "omen": 3331,
      "omas": 3332,
      "fever": 3333,
      "consu": 3334,
      "lot": 3335,
      "aming": 3336,
      "respect": 3337,
      "Heaven": 3338,
      "perceive": 3339,
      "moving": 3340,
      "dismal": 3341,
      "prog": 3342,
      "rance": 3343,
      "Thomas": 3344,
      "useless": 3345,
      "paused": 3346,
      "wants": 3347,
      "class": 3348,
      "opin": 3349,
      "guess": 3350,
      "ventures": 3351,
      "wondering": 3352,
      "pains": 3353,
      "refre": 3354,
      "possibly": 3355,
      "grapes": 3356,
      "clean": 3357,
      "author": 3358,
      "strug": 3359,
      "hearing": 3360,
      "committed": 3361,
      "stern": 3362,
      "reflect": 3363,
      "delighted": 3364,
      "single": 3365,
      "frightful": 3366,
      "drop": 3367,
      "cottagers": 3368,
      "pursue": 3369,
      "pursued": 3370,
      "sighed": 3371,
      "anxious": 3372,
      "ctors": 3373,
      "muttered": 3374,
      "knees": 3375,
      "Alas": 3376,
      "depend": 3377,
      "favourite": 3378,
      "fifty": 3379,
      "shouted": 3380,
      "beasts": 3381,
      "domin": 3382,
      "frequently": 3383,
      "neighbour": 3384,
      "splend": 3385,
      "impression": 3386,
      "succeed": 3387,
      "experiment": 3388,
      "16": 3389,
      ";”": 3390,
      "About": 3391,
      "Ma": 3392,
      "Port": 3393,
      "Qu": 3394,
      "Sat": 3395,
      "Such": 3396,
      "Wel": 3397,
      "bent": 3398,
      "bree": 3399,
      "bark": 3400,
      "bank": 3401,
      "dain": 3402,
      "fru": 3403,
      "gment": 3404,
      "gained": 3405,
      "hated": 3406,
      "harm": 3407,
      "pard": 3408,
      "prou": 3409,
      "paren": 3410,
      "ration": 3411,
      "rise": 3412,
      "snat": 3413,
      "tit": 3414,
      "taste": 3415,
      "vous": 3416,
      "wol": 3417,
      "thr": 3418,
      "inside": 3419,
      "recover": 3420,
      "edu": 3421,
      "arked": 3422,
      "haust": 3423,
      "vere": 3424,
      "aloud": 3425,
      "ado": 3426,
      "shing": 3427,
      "absur": 3428,
      "terday": 3429,
      "aging": 3430,
      "sugar": 3431,
      "convin": 3432,
      "hero": 3433,
      "cogn": 3434,
      "load": 3435,
      "locked": 3436,
      "raise": 3437,
      "exhaust": 3438,
      "quit": 3439,
      "motions": 3440,
      "arest": 3441,
      "anyway": 3442,
      "endure": 3443,
      "affair": 3444,
      "failed": 3445,
      "disappeared": 3446,
      "ples": 3447,
      "handsome": 3448,
      "beings": 3449,
      "origin": 3450,
      "vig": 3451,
      "grin": 3452,
      "remarked": 3453,
      "clay": 3454,
      "prepar": 3455,
      "distant": 3456,
      "ames": 3457,
      "miseries": 3458,
      "meaning": 3459,
      "barbar": 3460,
      "falling": 3461,
      "writing": 3462,
      "ignation": 3463,
      "pictures": 3464,
      "mountain": 3465,
      "puzz": 3466,
      "Only": 3467,
      "borough": 3468,
      "ugly": 3469,
      "hatche": 3470,
      "pointing": 3471,
      "listening": 3472,
      "innocence": 3473,
      "soft": 3474,
      "pistol": 3475,
      "assured": 3476,
      "interrupted": 3477,
      "philosophy": 3478,
      "restored": 3479,
      "fashion": 3480,
      "vulgar": 3481,
      "scenes": 3482,
      "teeth": 3483,
      "daughter": 3484,
      "Narborough": 3485,
      "seamen": 3486,
      "empty": 3487,
      "wolves": 3488,
      "absurd": 3489,
      "!’": 3490,
      ".,": 3491,
      "10": 3492,
      "HE": 3493,
      "IN": 3494,
      "June": 3495,
      "James": 3496,
      "Le": 3497,
      "Mother": 3498,
      "Muff": 3499,
      "bi": 3500,
      "bility": 3501,
      "daw": 3502,
      "emon": 3503,
      "echo": 3504,
      "gion": 3505,
      "grou": 3506,
      "ior": 3507,
      "ires": 3508,
      "later": 3509,
      "nal": 3510,
      "oke": 3511,
      "pack": 3512,
      "rous": 3513,
      "sword": 3514,
      "tum": 3515,
      "vest": 3516,
      "valley": 3517,
      "zes": 3518,
      "anti": 3519,
      "renew": 3520,
      "env": 3521,
      "heel": 3522,
      "stic": 3523,
      "roll": 3524,
      "soo": 3525,
      "sow": 3526,
      "liked": 3527,
      "weigh": 3528,
      "forgive": 3529,
      "alous": 3530,
      "advan": 3531,
      "unch": 3532,
      "unted": 3533,
      "unless": 3534,
      "sho": 3535,
      "ores": 3536,
      "Their": 3537,
      "conve": 3538,
      "contem": 3539,
      "somewhat": 3540,
      "tear": 3541,
      "anywhere": 3542,
      "geon": 3543,
      "ideas": 3544,
      "accept": 3545,
      "dict": 3546,
      "ists": 3547,
      "shaking": 3548,
      "umb": 3549,
      "render": 3550,
      "offer": 3551,
      "lights": 3552,
      "gathered": 3553,
      "clam": 3554,
      "club": 3555,
      "laying": 3556,
      "application": 3557,
      "awoke": 3558,
      "winds": 3559,
      "portion": 3560,
      "audi": 3561,
      "written": 3562,
      "remembran": 3563,
      "strangely": 3564,
      "ively": 3565,
      "accus": 3566,
      "genius": 3567,
      "bringing": 3568,
      "considering": 3569,
      "holding": 3570,
      "dangerous": 3571,
      "period": 3572,
      "shade": 3573,
      "born": 3574,
      "Spanish": 3575,
      "pursuit": 3576,
      "crying": 3577,
      "bbing": 3578,
      "swift": 3579,
      "Chris": 3580,
      "examined": 3581,
      "faint": 3582,
      "eagerly": 3583,
      "earnestly": 3584,
      "exceedingly": 3585,
      "leaning": 3586,
      "America": 3587,
      "divine": 3588,
      "tranquill": 3589,
      "desolate": 3590,
      "negroes": 3591,
      "marvell": 3592,
      "houses": 3593,
      "inquir": 3594,
      "convinced": 3595,
      ",’": 3596,
      "Are": 3597,
      "Aug": 3598,
      "Gu": 3599,
      "Ple": 3600,
      "Would": 3601,
      "XX": 3602,
      "ais": 3603,
      "aid": 3604,
      "ball": 3605,
      "bits": 3606,
      "cow": 3607,
      "ctive": 3608,
      "due": 3609,
      "drunk": 3610,
      "ec": 3611,
      "ee": 3612,
      "fold": 3613,
      "gently": 3614,
      "mater": 3615,
      "nur": 3616,
      "pent": 3617,
      "rit": 3618,
      "sli": 3619,
      "sank": 3620,
      "tes": 3621,
      "но": 3622,
      "“—": 3623,
      "”;": 3624,
      "ancing": 3625,
      "inquired": 3626,
      "repro": 3627,
      "recogn": 3628,
      "attered": 3629,
      "encour": 3630,
      "assure": 3631,
      "orge": 3632,
      "hest": 3633,
      "meat": 3634,
      "sear": 3635,
      "sevent": 3636,
      "stakes": 3637,
      "noble": 3638,
      "utmost": 3639,
      "uttered": 3640,
      "verse": 3641,
      "ays": 3642,
      "fears": 3643,
      "delay": 3644,
      "notion": 3645,
      "shman": 3646,
      "shoes": 3647,
      "aby": 3648,
      "absor": 3649,
      "agues": 3650,
      "butter": 3651,
      "thern": 3652,
      "whither": 3653,
      "suit": 3654,
      "amuse": 3655,
      "manage": 3656,
      "wholly": 3657,
      "host": 3658,
      "fice": 3659,
      "size": 3660,
      "providence": 3661,
      "sport": 3662,
      "begun": 3663,
      "acknow": 3664,
      "goodness": 3665,
      "pride": 3666,
      "lessly": 3667,
      "remorse": 3668,
      "Indi": 3669,
      "missed": 3670,
      "party": 3671,
      "service": 3672,
      "intended": 3673,
      "guard": 3674,
      "painting": 3675,
      "jealous": 3676,
      "curtain": 3677,
      "attended": 3678,
      "cript": 3679,
      "playing": 3680,
      "formation": 3681,
      "eaten": 3682,
      "confused": 3683,
      "imagine": 3684,
      "fortune": 3685,
      "sailor": 3686,
      "drove": 3687,
      "hungry": 3688,
      "hills": 3689,
      "considerable": 3690,
      "windows": 3691,
      "drawing": 3692,
      "described": 3693,
      "daemon": 3694,
      "crim": 3695,
      "regular": 3696,
      "furious": 3697,
      "hidden": 3698,
      "sympath": 3699,
      "produce": 3700,
      "anxiously": 3701,
      "decided": 3702,
      "sensation": 3703,
      "shadows": 3704,
      "princi": 3705,
      "custom": 3706,
      "flew": 3707,
      "fication": 3708,
      "prac": 3709,
      "judi": 3710,
      "important": 3711,
      "dragged": 3712,
      "theatre": 3713,
      "Welshman": 3714,
      "remembrance": 3715,
      "August": 3716,
      "03": 3717,
      "14": 3718,
      "15": 3719,
      "Con": 3720,
      "Dou": 3721,
      "Ex": 3722,
      "Lis": 3723,
      "Wa": 3724,
      "city": 3725,
      "cool": 3726,
      "fy": 3727,
      "ghest": 3728,
      "ich": 3729,
      "ild": 3730,
      "jest": 3731,
      "mun": 3732,
      "naked": 3733,
      "tin": 3734,
      "tar": 3735,
      "vate": 3736,
      "vac": 3737,
      "whel": 3738,
      "ли": 3739,
      "inations": 3740,
      "required": 3741,
      "tossed": 3742,
      "asped": 3743,
      "ites": 3744,
      "aries": 3745,
      "seated": 3746,
      "lect": 3747,
      "leagues": 3748,
      "station": 3749,
      "stared": 3750,
      "stars": 3751,
      "straw": 3752,
      "chim": 3753,
      "cean": 3754,
      "forms": 3755,
      "entrance": 3756,
      "image": 3757,
      "advice": 3758,
      "adventures": 3759,
      "ribly": 3760,
      "feed": 3761,
      "feast": 3762,
      "feared": 3763,
      "sacri": 3764,
      "upstairs": 3765,
      "tip": 3766,
      "pear": 3767,
      "pol": 3768,
      "dozen": 3769,
      "worst": 3770,
      "hose": 3771,
      "overcome": 3772,
      "thanks": 3773,
      "longed": 3774,
      "posing": 3775,
      "shaped": 3776,
      "landing": 3777,
      "lighted": 3778,
      "waters": 3779,
      "shipped": 3780,
      "gazing": 3781,
      "Indeed": 3782,
      "parted": 3783,
      "rested": 3784,
      "older": 3785,
      "calling": 3786,
      "corpse": 3787,
      "huge": 3788,
      "visited": 3789,
      "commence": 3790,
      "...": 3791,
      "sails": 3792,
      "untie": 3793,
      "thirst": 3794,
      "necessity": 3795,
      "safety": 3796,
      "labours": 3797,
      "warn": 3798,
      "scarlet": 3799,
      "expecting": 3800,
      "fatig": 3801,
      "enjoyed": 3802,
      "servants": 3803,
      "fishing": 3804,
      "animal": 3805,
      "excited": 3806,
      "beneath": 3807,
      "benevol": 3808,
      "princip": 3809,
      "fifteen": 3810,
      "preserve": 3811,
      "revealed": 3812,
      "virtue": 3813,
      "faithful": 3814,
      "disappointment": 3815,
      "torture": 3816,
      "throat": 3817,
      "separated": 3818,
      "agreeable": 3819,
      "merchant": 3820,
      "devoted": 3821,
      "shelter": 3822,
      "governor": 3823,
      "communic": 3824,
      "tragedy": 3825,
      "contempl": 3826,
      "Christian": 3827,
      "tranquillity": 3828,
      "ecst": 3829,
      "Lisbon": 3830,
      "Gree": 3831,
      "Prin": 3832,
      "RE": 3833,
      "THE": 3834,
      "ax": 3835,
      "bers": 3836,
      "brush": 3837,
      "dried": 3838,
      "fill": 3839,
      "gust": 3840,
      "iently": 3841,
      "jack": 3842,
      "lone": 3843,
      "lted": 3844,
      "ocean": 3845,
      "pper": 3846,
      "poured": 3847,
      "rist": 3848,
      "wake": 3849,
      "ро": 3850,
      "receive": 3851,
      "erable": 3852,
      "toe": 3853,
      "tomed": 3854,
      "enclo": 3855,
      "asp": 3856,
      "inging": 3857,
      "meal": 3858,
      "legs": 3859,
      "ghost": 3860,
      "rob": 3861,
      "lies": 3862,
      "libr": 3863,
      "weary": 3864,
      "improve": 3865,
      "uncle": 3866,
      "shove": 3867,
      "abs": 3868,
      "abor": 3869,
      "terms": 3870,
      "amiable": 3871,
      "ulate": 3872,
      "perple": 3873,
      "antly": 3874,
      "hog": 3875,
      "ateful": 3876,
      "comb": 3877,
      "forehead": 3878,
      "process": 3879,
      "overwhel": 3880,
      "cied": 3881,
      "earthen": 3882,
      "rows": 3883,
      "ories": 3884,
      "orious": 3885,
      "Any": 3886,
      "shallow": 3887,
      "nights": 3888,
      "rendered": 3889,
      "welled": 3890,
      "lessons": 3891,
      "gazed": 3892,
      "parts": 3893,
      "smoo": 3894,
      "works": 3895,
      "creator": 3896,
      "highest": 3897,
      "friendship": 3898,
      "guil": 3899,
      "guilt": 3900,
      "effort": 3901,
      "awake": 3902,
      "mercy": 3903,
      "Before": 3904,
      "corrup": 3905,
      "attend": 3906,
      "ceiving": 3907,
      "surely": 3908,
      "rung": 3909,
      "travel": 3910,
      "returning": 3911,
      "powers": 3912,
      "acting": 3913,
      "bushe": 3914,
      "build": 3915,
      "observation": 3916,
      "interval": 3917,
      "labor": 3918,
      "swept": 3919,
      "questions": 3920,
      "fancied": 3921,
      "incident": 3922,
      "ttles": 3923,
      "century": 3924,
      "wretches": 3925,
      "dram": 3926,
      "carrying": 3927,
      "burden": 3928,
      "circumstance": 3929,
      "concern": 3930,
      "vanished": 3931,
      "finger": 3932,
      "bird": 3933,
      "attempted": 3934,
      "departure": 3935,
      "yesterday": 3936,
      "blessed": 3937,
      "knocked": 3938,
      "pulled": 3939,
      "pistols": 3940,
      "swimming": 3941,
      "demand": 3942,
      "screen": 3943,
      "Arab": 3944,
      "travelled": 3945,
      "admiration": 3946,
      "mourn": 3947,
      "contrary": 3948,
      "stupid": 3949,
      "studio": 3950,
      "ignorant": 3951,
      "gradually": 3952,
      "fantastic": 3953,
      "indifferent": 3954,
      "milk": 3955,
      "progress": 3956,
      "opinion": 3957,
      "fruit": 3958,
      "proud": 3959,
      "educ": 3960,
      "advanced": 3961,
      "accustomed": 3962,
      "marvellous": 3963,
      "Prince": 3964,
      "AN": 3965,
      "Bo": 3966,
      "Bill": 3967,
      "EN": 3968,
      "Fir": 3969,
      "Hu": 3970,
      "Mor": 3971,
      "Nor": 3972,
      "Those": 3973,
      "Very": 3974,
      "action": 3975,
      "baby": 3976,
      "cis": 3977,
      "egg": 3978,
      "gy": 3979,
      "gla": 3980,
      "hook": 3981,
      "ker": 3982,
      "liness": 3983,
      "lamp": 3984,
      "mort": 3985,
      "narrow": 3986,
      "uced": 3987,
      "wre": 3988,
      "wine": 3989,
      "wrought": 3990,
      "за": 3991,
      "ко": 3992,
      "ths": 3993,
      "invent": 3994,
      "removed": 3995,
      "remove": 3996,
      "reali": 3997,
      "atic": 3998,
      "enthus": 3999,
      "istic": 4000,
      "heap": 4001,
      "behold": 4002,
      "league": 4003,
      "stage": 4004,
      "chin": 4005,
      "wick": 4006,
      "cell": 4007,
      "adv": 4008,
      "rie": 4009,
      "unconscious": 4010,
      "decl": 4011,
      "devour": 4012,
      "defence": 4013,
      "dearest": 4014,
      "oomy": 4015,
      "abun": 4016,
      "camp": 4017,
      "lod": 4018,
      "lock": 4019,
      "goes": 4020,
      "extingu": 4021,
      "selfish": 4022,
      "worship": 4023,
      "worthy": 4024,
      "afford": 4025,
      "comfor": 4026,
      "compl": 4027,
      "compassion": 4028,
      "rule": 4029,
      "spared": 4030,
      "gloomy": 4031,
      "inea": 4032,
      "desper": 4033,
      "desires": 4034,
      "posite": 4035,
      "print": 4036,
      "voices": 4037,
      "gives": 4038,
      "dying": 4039,
      "remains": 4040,
      "game": 4041,
      "gather": 4042,
      "seriously": 4043,
      "speaking": 4044,
      "tender": 4045,
      "smiles": 4046,
      "created": 4047,
      "nervous": 4048,
      "prejudi": 4049,
      "Soon": 4050,
      "ventured": 4051,
      "brea": 4052,
      "breed": 4053,
      "refuse": 4054,
      "steal": 4055,
      "lower": 4056,
      "spoken": 4057,
      "possibility": 4058,
      "purple": 4059,
      "silk": 4060,
      "ease": 4061,
      "lively": 4062,
      "skiff": 4063,
      "ashed": 4064,
      "chamber": 4065,
      "verses": 4066,
      "whitewash": 4067,
      "carefully": 4068,
      "addressed": 4069,
      "tails": 4070,
      "tavern": 4071,
      "busy": 4072,
      "opening": 4073,
      "understanding": 4074,
      "occasions": 4075,
      "stayed": 4076,
      "drawn": 4077,
      "groan": 4078,
      "sorts": 4079,
      "Once": 4080,
      "elev": 4081,
      "prisoner": 4082,
      "sorrows": 4083,
      "usually": 4084,
      "increase": 4085,
      "pirates": 4086,
      "inhabitants": 4087,
      "candles": 4088,
      "quietly": 4089,
      "Spaniards": 4090,
      "softly": 4091,
      "utterly": 4092,
      "crop": 4093,
      "physi": 4094,
      "concealed": 4095,
      "inclination": 4096,
      "persuade": 4097,
      "basket": 4098,
      "probable": 4099,
      "benef": 4100,
      "religion": 4101,
      "astonishment": 4102,
      "mystery": 4103,
      "amazed": 4104,
      "Finn": 4105,
      "hastened": 4106,
      "Ernest": 4107,
      "remote": 4108,
      "rapidly": 4109,
      "record": 4110,
      "exercise": 4111,
      "apparently": 4112,
      "dwelling": 4113,
      "avoid": 4114,
      "eternal": 4115,
      "pardon": 4116,
      "exhausted": 4117,
      "puzzled": 4118,
      "roused": 4119,
      "Please": 4120,
      "library": 4121,
      "absence": 4122,
      "guilty": 4123,
      "First": 4124,
      "enthusi": 4125,
      "Afri": 4126,
      "Nature": 4127,
      "Pi": 4128,
      "Script": 4129,
      "Wal": 4130,
      "aim": 4131,
      "awhile": 4132,
      "bill": 4133,
      "evid": 4134,
      "emotions": 4135,
      "fury": 4136,
      "glim": 4137,
      "lord": 4138,
      "mill": 4139,
      "py": 4140,
      "pall": 4141,
      "page": 4142,
      "patter": 4143,
      "pond": 4144,
      "silly": 4145,
      "vic": 4146,
      "wra": 4147,
      "бы": 4148,
      "ло": 4149,
      "inction": 4150,
      "inches": 4151,
      "revi": 4152,
      "eral": 4153,
      "tore": 4154,
      "height": 4155,
      "iti": 4156,
      "itch": 4157,
      "leis": 4158,
      "stain": 4159,
      "novel": 4160,
      "chan": 4161,
      "idores": 4162,
      "altogether": 4163,
      "uni": 4164,
      "uneasy": 4165,
      "detest": 4166,
      "shrill": 4167,
      "ability": 4168,
      "tering": 4169,
      "nel": 4170,
      "conne": 4171,
      "conceived": 4172,
      "conceive": 4173,
      "hers": 4174,
      "loath": 4175,
      "ammun": 4176,
      "bodi": 4177,
      "bosom": 4178,
      "bottles": 4179,
      "raven": 4180,
      "mans": 4181,
      "expres": 4182,
      "exped": 4183,
      "dome": 4184,
      "doctor": 4185,
      "moidores": 4186,
      "discour": 4187,
      "fix": 4188,
      "Its": 4189,
      "rude": 4190,
      "accompan": 4191,
      "sibly": 4192,
      "assed": 4193,
      "plun": 4194,
      "elabor": 4195,
      "Thus": 4196,
      "pipe": 4197,
      "positions": 4198,
      "pron": 4199,
      "paid": 4200,
      "solitude": 4201,
      "arming": 4202,
      "horribly": 4203,
      "settle": 4204,
      "intend": 4205,
      "survi": 4206,
      "hearted": 4207,
      "quire": 4208,
      "wonderfully": 4209,
      "breast": 4210,
      "torment": 4211,
      "Because": 4212,
      "doors": 4213,
      "finish": 4214,
      "helped": 4215,
      "meantime": 4216,
      "valu": 4217,
      "driving": 4218,
      "built": 4219,
      "reply": 4220,
      "fearful": 4221,
      "impulse": 4222,
      "confusion": 4223,
      "boards": 4224,
      "gger": 4225,
      "sentiment": 4226,
      "beside": 4227,
      "muskets": 4228,
      "related": 4229,
      "persons": 4230,
      "personality": 4231,
      "arrive": 4232,
      "welcome": 4233,
      "borne": 4234,
      "description": 4235,
      "enterpr": 4236,
      "difficult": 4237,
      "harsh": 4238,
      "eighteen": 4239,
      "hatred": 4240,
      "concerned": 4241,
      "crowded": 4242,
      "hiding": 4243,
      "brothers": 4244,
      "pirate": 4245,
      "relieve": 4246,
      "gloves": 4247,
      "magn": 4248,
      "according": 4249,
      "marks": 4250,
      "Life": 4251,
      "shuddered": 4252,
      "persuaded": 4253,
      "bloom": 4254,
      "probably": 4255,
      "clouds": 4256,
      "Mont": 4257,
      "apartment": 4258,
      "satisfaction": 4259,
      "couple": 4260,
      "nonsense": 4261,
      "Satur": 4262,
      "parents": 4263,
      "searched": 4264,
      "fatigue": 4265,
      "smooth": 4266,
      "ammunition": 4267,
      ".)": 4268,
      "05": 4269,
      "12": 4270,
      "Bible": 4271,
      "Ca": 4272,
      "Cer": 4273,
      "Din": 4274,
      "Me": 4275,
      "ON": 4276,
      "Take": 4277,
      "VI": 4278,
      "Women": 4279,
      "aly": 4280,
      "acted": 4281,
      "auntie": 4282,
      "bis": 4283,
      "bought": 4284,
      "dart": 4285,
      "elo": 4286,
      "eper": 4287,
      "fal": 4288,
      "fting": 4289,
      "gue": 4290,
      "iv": 4291,
      "leness": 4292,
      "ok": 4293,
      "pure": 4294,
      "song": 4295,
      "tall": 4296,
      "uge": 4297,
      "vague": 4298,
      "ве": 4299,
      "ле": 4300,
      "ть": 4301,
      "—’": 4302,
      "”—": 4303,
      "ancient": 4304,
      "inten": 4305,
      "information": 4306,
      "request": 4307,
      "ency": 4308,
      "haven": 4309,
      "haunted": 4310,
      "velo": 4311,
      "roses": 4312,
      "versed": 4313,
      "weap": 4314,
      "improved": 4315,
      "adt": 4316,
      "ading": 4317,
      "union": 4318,
      "deck": 4319,
      "depri": 4320,
      "upper": 4321,
      "aband": 4322,
      "agon": 4323,
      "negle": 4324,
      "sul": 4325,
      "cake": 4326,
      "conject": 4327,
      "contempt": 4328,
      "poet": 4329,
      "pots": 4330,
      "loving": 4331,
      "govern": 4332,
      "golst": 4333,
      "bold": 4334,
      "bother": 4335,
      "reser": 4336,
      "managed": 4337,
      "explan": 4338,
      "doll": 4339,
      "peril": 4340,
      "perform": 4341,
      "performed": 4342,
      "anting": 4343,
      "ends": 4344,
      "endous": 4345,
      "complain": 4346,
      "composed": 4347,
      "disposition": 4348,
      "abouts": 4349,
      "rugged": 4350,
      "daylight": 4351,
      "sprang": 4352,
      "cigaret": 4353,
      "pless": 4354,
      "mum": 4355,
      "begged": 4356,
      "Three": 4357,
      "inkled": 4358,
      "glas": 4359,
      "glory": 4360,
      "mention": 4361,
      "pick": 4362,
      "grateful": 4363,
      "flood": 4364,
      "umber": 4365,
      "undertaking": 4366,
      "ached": 4367,
      "Ingolst": 4368,
      "served": 4369,
      "lasted": 4370,
      "horses": 4371,
      "emer": 4372,
      "create": 4373,
      "opposite": 4374,
      "intim": 4375,
      "precip": 4376,
      "waist": 4377,
      "islands": 4378,
      "cutting": 4379,
      "train": 4380,
      "dug": 4381,
      "bug": 4382,
      "chap": 4383,
      "commit": 4384,
      "choice": 4385,
      "dreamed": 4386,
      "sounded": 4387,
      "wheel": 4388,
      "walls": 4389,
      "sailors": 4390,
      "angel": 4391,
      "price": 4392,
      "private": 4393,
      "blame": 4394,
      "stuff": 4395,
      "elder": 4396,
      "rainy": 4397,
      "curiously": 4398,
      "lerable": 4399,
      "generous": 4400,
      "views": 4401,
      "effectually": 4402,
      "ferry": 4403,
      "madness": 4404,
      "golden": 4405,
      "prayed": 4406,
      "expectation": 4407,
      "grie": 4408,
      "harvest": 4409,
      "subjects": 4410,
      "collected": 4411,
      "wandering": 4412,
      "instruments": 4413,
      "sadly": 4414,
      "Charming": 4415,
      "experienced": 4416,
      "posture": 4417,
      "bitterly": 4418,
      "wretchedness": 4419,
      "excite": 4420,
      "laws": 4421,
      "belonged": 4422,
      "searching": 4423,
      "objects": 4424,
      "formerly": 4425,
      "desert": 4426,
      "sufferings": 4427,
      "Like": 4428,
      "consequence": 4429,
      "consequently": 4430,
      "thankfulness": 4431,
      "thorough": 4432,
      "virtues": 4433,
      "religious": 4434,
      "fowls": 4435,
      "fowling": 4436,
      "fields": 4437,
      "bestowed": 4438,
      "fascinating": 4439,
      "conduct": 4440,
      "salt": 4441,
      "square": 4442,
      "intellectual": 4443,
      "hesitated": 4444,
      "comrades": 4445,
      "descended": 4446,
      "employment": 4447,
      "explained": 4448,
      "guests": 4449,
      "hatchet": 4450,
      "group": 4451,
      "slipped": 4452,
      "Douglas": 4453,
      "jesty": 4454,
      "shovel": 4455,
      "Arabian": 4456,
      "benefit": 4457,
      "accompanied": 4458,
      "pronoun": 4459,
      "false": 4460,
      "cigarette": 4461,
      "Ingolstadt": 4462,
      "Ano": 4463,
      "Amy": 4464,
      "Acc": 4465,
      "Car": 4466,
      "Dear": 4467,
      "IV": 4468,
      "Kir": 4469,
      "Mad": 4470,
      "Rome": 4471,
      "Sou": 4472,
      "Sep": 4473,
      "Still": 4474,
      "Stre": 4475,
      "bri": 4476,
      "battle": 4477,
      "emotion": 4478,
      "farm": 4479,
      "fitted": 4480,
      "gilt": 4481,
      "hil": 4482,
      "lin": 4483,
      "nin": 4484,
      "nted": 4485,
      "pool": 4486,
      "rat": 4487,
      "rained": 4488,
      "scient": 4489,
      "tro": 4490,
      "task": 4491,
      "ume": 4492,
      "ugu": 4493,
      "ware": 4494,
      "ра": 4495,
      "“’": 4496,
      "theory": 4497,
      "ino": 4498,
      "inv": 4499,
      "rey": 4500,
      "represent": 4501,
      "toms": 4502,
      "ensive": 4503,
      "asm": 4504,
      "member": 4505,
      "llen": 4506,
      "belt": 4507,
      "stones": 4508,
      "wasted": 4509,
      "chill": 4510,
      "rolled": 4511,
      "utions": 4512,
      "vering": 4513,
      "alities": 4514,
      "imit": 4515,
      "ador": 4516,
      "owing": 4517,
      "alled": 4518,
      "rily": 4519,
      "decla": 4520,
      "sailed": 4521,
      "oop": 4522,
      "shirt": 4523,
      "absent": 4524,
      "tible": 4525,
      "pecu": 4526,
      "condem": 4527,
      "ours": 4528,
      "coarse": 4529,
      "somewhere": 4530,
      "resist": 4531,
      "residence": 4532,
      "lack": 4533,
      "perish": 4534,
      "worshipped": 4535,
      "whenever": 4536,
      "hovel": 4537,
      "thereabouts": 4538,
      "fault": 4539,
      "figu": 4540,
      "aker": 4541,
      "spite": 4542,
      "divided": 4543,
      "digging": 4544,
      "elbow": 4545,
      "blast": 4546,
      "wherever": 4547,
      "shake": 4548,
      "type": 4549,
      "miss": 4550,
      "mischief": 4551,
      "mission": 4552,
      "partner": 4553,
      "serve": 4554,
      "sermon": 4555,
      "calls": 4556,
      "aths": 4557,
      "embro": 4558,
      "tainly": 4559,
      "hearts": 4560,
      "prey": 4561,
      "precious": 4562,
      "apply": 4563,
      "cuz": 4564,
      "breaking": 4565,
      "minister": 4566,
      "refuge": 4567,
      "murmur": 4568,
      "attra": 4569,
      "tember": 4570,
      "crimes": 4571,
      "sunlight": 4572,
      "larger": 4573,
      "tram": 4574,
      "trade": 4575,
      "difference": 4576,
      "ashore": 4577,
      "humanity": 4578,
      "smaller": 4579,
      "confidence": 4580,
      "nib": 4581,
      "sentence": 4582,
      "charged": 4583,
      "troubles": 4584,
      "relations": 4585,
      "compli": 4586,
      "affections": 4587,
      "streets": 4588,
      "throwing": 4589,
      "burned": 4590,
      "planted": 4591,
      "complex": 4592,
      "smoking": 4593,
      "mistake": 4594,
      "gravely": 4595,
      "patience": 4596,
      "queer": 4597,
      "bower": 4598,
      "anxiety": 4599,
      "Christ": 4600,
      "magist": 4601,
      "superior": 4602,
      "crossed": 4603,
      "remarkable": 4604,
      "mild": 4605,
      "contented": 4606,
      "halloo": 4607,
      "warmth": 4608,
      "preserved": 4609,
      "knock": 4610,
      "inclined": 4611,
      "blos": 4612,
      "mirror": 4613,
      "yielded": 4614,
      "American": 4615,
      "Finally": 4616,
      "flame": 4617,
      "cruelty": 4618,
      "bullets": 4619,
      "gestures": 4620,
      "agitation": 4621,
      "hitherto": 4622,
      "repentance": 4623,
      "affliction": 4624,
      "fulfil": 4625,
      "Margaret": 4626,
      "hazard": 4627,
      "cautiously": 4628,
      "swallowed": 4629,
      "fortification": 4630,
      "struggled": 4631,
      "succeeded": 4632,
      "Portugu": 4633,
      "breeze": 4634,
      "seventeen": 4635,
      "absorbed": 4636,
      "chimney": 4637,
      "jacket": 4638,
      "lonely": 4639,
      "eggs": 4640,
      "kerchief": 4641,
      "abundance": 4642,
      "Saturday": 4643,
      "Certainly": 4644,
      "Dinah": 4645,
      "Another": 4646,
      "Accord": 4647,
      "Kirwin": 4648,
      "September": 4649,
      "Street": 4650,
      "peculiar": 4651,
      "condemned": 4652,
      "Portuguese": 4653,
      "20": 4654,
      "30": 4655,
      "9K": 4656,
      "Bl": 4657,
      "OR": 4658,
      "Sha": 4659,
      "Stop": 4660,
      "Shall": 4661,
      "bing": 4662,
      "bil": 4663,
      "bru": 4664,
      "bough": 4665,
      "ctory": 4666,
      "dumb": 4667,
      "git": 4668,
      "hut": 4669,
      "kins": 4670,
      "kitch": 4671,
      "lid": 4672,
      "mat": 4673,
      "mul": 4674,
      "nar": 4675,
      "nic": 4676,
      "sme": 4677,
      "sper": 4678,
      "sledge": 4679,
      "sque": 4680,
      "takes": 4681,
      "vag": 4682,
      "vices": 4683,
      "wing": 4684,
      "zer": 4685,
      "ма": 4686,
      "не": 4687,
      "сь": 4688,
      "rela": 4689,
      "encourage": 4690,
      "asha": 4691,
      "isins": 4692,
      "iter": 4693,
      "mem": 4694,
      "sell": 4695,
      "secur": 4696,
      "becoming": 4697,
      "sty": 4698,
      "stam": 4699,
      "stiff": 4700,
      "waste": 4701,
      "chase": 4702,
      "rode": 4703,
      "root": 4704,
      "verty": 4705,
      "lion": 4706,
      "liet": 4707,
      "liqu": 4708,
      "adays": 4709,
      "unjust": 4710,
      "uneas": 4711,
      "def": 4712,
      "ools": 4713,
      "shy": 4714,
      "shown": 4715,
      "upright": 4716,
      "abate": 4717,
      "agic": 4718,
      "peep": 4719,
      "cares": 4720,
      "caution": 4721,
      "consum": 4722,
      "ardour": 4723,
      "poverty": 4724,
      "raisins": 4725,
      "uses": 4726,
      "indignation": 4727,
      "quer": 4728,
      "quet": 4729,
      "astly": 4730,
      "disgust": 4731,
      "Which": 4732,
      "ruined": 4733,
      "ideal": 4734,
      "idered": 4735,
      "propos": 4736,
      "procured": 4737,
      "diver": 4738,
      "fulness": 4739,
      "plenty": 4740,
      "blan": 4741,
      "handful": 4742,
      "handkerchief": 4743,
      "whereas": 4744,
      "picked": 4745,
      "aped": 4746,
      "flowed": 4747,
      "lands": 4748,
      "angrily": 4749,
      "lesson": 4750,
      "mense": 4751,
      "boyhood": 4752,
      "wanting": 4753,
      "psy": 4754,
      "psed": 4755,
      "cles": 4756,
      "Nobody": 4757,
      "gnity": 4758,
      "turns": 4759,
      "embra": 4760,
      "supper": 4761,
      "stillness": 4762,
      "pleasures": 4763,
      "fortnight": 4764,
      "eff": 4765,
      "applied": 4766,
      "brand": 4767,
      "distinct": 4768,
      "hunt": 4769,
      "hunting": 4770,
      "wonders": 4771,
      "jected": 4772,
      "cursed": 4773,
      "strag": 4774,
      "lads": 4775,
      "ladies": 4776,
      "fined": 4777,
      "finally": 4778,
      "tragic": 4779,
      "clever": 4780,
      "slee": 4781,
      "heartily": 4782,
      "barrel": 4783,
      "hopeless": 4784,
      "reasons": 4785,
      "skine": 4786,
      "rawling": 4787,
      "engage": 4788,
      "ashing": 4789,
      "surprising": 4790,
      "ggle": 4791,
      "frighted": 4792,
      "freed": 4793,
      "prize": 4794,
      "lantern": 4795,
      "stronger": 4796,
      "strongly": 4797,
      "sixteen": 4798,
      "pretend": 4799,
      "tremble": 4800,
      "consideration": 4801,
      "Dodo": 4802,
      "stirring": 4803,
      "capit": 4804,
      "warning": 4805,
      "flock": 4806,
      "Turk": 4807,
      "entertained": 4808,
      "admired": 4809,
      "burnt": 4810,
      "judgment": 4811,
      "valet": 4812,
      "sickness": 4813,
      "violently": 4814,
      "quarrel": 4815,
      "affectionate": 4816,
      "property": 4817,
      "dogs": 4818,
      "Everything": 4819,
      "showing": 4820,
      "patron": 4821,
      "decay": 4822,
      "spotted": 4823,
      "belonging": 4824,
      "jumping": 4825,
      "conceal": 4826,
      "reveal": 4827,
      "completely": 4828,
      "pulling": 4829,
      "wickedness": 4830,
      "acquaint": 4831,
      "slave": 4832,
      "astonished": 4833,
      "mysterious": 4834,
      "frequent": 4835,
      "protectors": 4836,
      "crack": 4837,
      "measure": 4838,
      "Erskine": 4839,
      "George": 4840,
      "comrade": 4841,
      "frowned": 4842,
      "failure": 4843,
      "snee": 4844,
      "Juliet": 4845,
      "opera": 4846,
      "annoyed": 4847,
      "impatient": 4848,
      "luxury": 4849,
      "European": 4850,
      "refreshed": 4851,
      "rational": 4852,
      "snatched": 4853,
      "preparing": 4854,
      "barbarous": 4855,
      "heels": 4856,
      "weighed": 4857,
      "encouraged": 4858,
      "amusement": 4859,
      "Greek": 4860,
      "procession": 4861,
      "corruption": 4862,
      "desperate": 4863,
      "leisure": 4864,
      "bodies": 4865,
      "magnific": 4866,
      "eloqu": 4867,
      "deprived": 4868,
      "explanation": 4869,
      "Soup": 4870,
      "scientific": 4871,
      "embroidered": 4872,
      "magistrate": 4873,
      "Accordingly": 4874,
      "kitchen": 4875,
      "ashamed": 4876,
      "uneasiness": 4877,
      "04": 4878,
      "06": 4879,
      "11": 4880,
      "4K": 4881,
      "?’": 4882,
      "Cru": 4883,
      "Foot": 4884,
      "Miss": 4885,
      "Off": 4886,
      "Sel": 4887,
      "Surely": 4888,
      "Wid": 4889,
      "bun": 4890,
      "bowed": 4891,
      "bones": 4892,
      "cil": 4893,
      "dur": 4894,
      "dus": 4895,
      "dang": 4896,
      "fil": 4897,
      "io": 4898,
      "igu": 4899,
      "jars": 4900,
      "kids": 4901,
      "len": 4902,
      "lam": 4903,
      "mitted": 4904,
      "nations": 4905,
      "oak": 4906,
      "pink": 4907,
      "piles": 4908,
      "rand": 4909,
      "rant": 4910,
      "slate": 4911,
      "tal": 4912,
      "tack": 4913,
      "wha": 4914,
      "wings": 4915,
      "ка": 4916,
      "од": 4917,
      "ano": 4918,
      "inn": 4919,
      "inal": 4920,
      "rene": 4921,
      "reward": 4922,
      "eddy": 4923,
      "asy": 4924,
      "isn": 4925,
      "arose": 4926,
      "sels": 4927,
      "severe": 4928,
      "beet": 4929,
      "beach": 4930,
      "beating": 4931,
      "sters": 4932,
      "stuck": 4933,
      "stem": 4934,
      "stump": 4935,
      "vet": 4936,
      "cease": 4937,
      "soms": 4938,
      "lia": 4939,
      "lick": 4940,
      "withstanding": 4941,
      "imble": 4942,
      "ribut": 4943,
      "unk": 4944,
      "uncomfortable": 4945,
      "deb": 4946,
      "notwithstanding": 4947,
      "urged": 4948,
      "shrie": 4949,
      "whilst": 4950,
      "peas": 4951,
      "cakes": 4952,
      "confir": 4953,
      "eteen": 4954,
      "ardent": 4955,
      "lover": 4956,
      "amid": 4957,
      "amount": 4958,
      "ambit": 4959,
      "ify": 4960,
      "respon": 4961,
      "exposed": 4962,
      "tearing": 4963,
      "indul": 4964,
      "ulated": 4965,
      "qualities": 4966,
      "perfor": 4967,
      "illness": 4968,
      "hoping": 4969,
      "hoarse": 4970,
      "affor": 4971,
      "affect": 4972,
      "compass": 4973,
      "theirs": 4974,
      "fier": 4975,
      "accompl": 4976,
      "sip": 4977,
      "twink": 4978,
      "yours": 4979,
      "provid": 4980,
      "proposed": 4981,
      "thence": 4982,
      "civi": 4983,
      "dili": 4984,
      "pled": 4985,
      "plank": 4986,
      "blown": 4987,
      "lifeless": 4988,
      "vile": 4989,
      "viour": 4990,
      "vivid": 4991,
      "eyed": 4992,
      "grasp": 4993,
      "share": 4994,
      "flag": 4995,
      "checked": 4996,
      "papers": 4997,
      "offended": 4998,
      "offrey": 4999,
      "shire": 5000,
      "obsc": 5001,
      "closing": 5002,
      "serpent": 5003,
      "happily": 5004,
      "clung": 5005,
      "tells": 5006,
      "betray": 5007,
      "brood": 5008,
      "intent": 5009,
      "friendly": 5010,
      "preced": 5011,
      "preva": 5012,
      "parrot": 5013,
      "apple": 5014,
      "distinction": 5015,
      "sensibly": 5016,
      "folly": 5017,
      "dreary": 5018,
      "tors": 5019,
      "refused": 5020,
      "wave": 5021,
      "steep": 5022,
      "resolutions": 5023,
      "joys": 5024,
      "trace": 5025,
      "track": 5026,
      "follows": 5027,
      "cleared": 5028,
      "destiny": 5029,
      "struggle": 5030,
      "wilder": 5031,
      "cholog": 5032,
      "careful": 5033,
      "trifle": 5034,
      "signal": 5035,
      "musing": 5036,
      "limb": 5037,
      "centre": 5038,
      "sincerely": 5039,
      "sixty": 5040,
      "startled": 5041,
      "horrors": 5042,
      "temptation": 5043,
      "necessaries": 5044,
      "fastened": 5045,
      "considerably": 5046,
      "circus": 5047,
      "fairly": 5048,
      "crit": 5049,
      "spectacle": 5050,
      "sorrowful": 5051,
      "enjoyment": 5052,
      "flushed": 5053,
      "branch": 5054,
      "instrument": 5055,
      "remaining": 5056,
      "volume": 5057,
      "facts": 5058,
      "meeting": 5059,
      "oppressed": 5060,
      "kneel": 5061,
      "confession": 5062,
      "conclusion": 5063,
      "assistance": 5064,
      "blessing": 5065,
      "mixed": 5066,
      "repeat": 5067,
      "discoveries": 5068,
      "punishment": 5069,
      "hateful": 5070,
      "consequences": 5071,
      "provision": 5072,
      "funeral": 5073,
      "rotten": 5074,
      "cheek": 5075,
      "turtle": 5076,
      "graceful": 5077,
      "disappointed": 5078,
      "contrived": 5079,
      "equal": 5080,
      "apprehension": 5081,
      "neighbor": 5082,
      "admirable": 5083,
      "exhibited": 5084,
      "measures": 5085,
      "consented": 5086,
      "latitude": 5087,
      "timidly": 5088,
      "Geoffrey": 5089,
      "tickets": 5090,
      "satisfactory": 5091,
      "brown": 5092,
      "gallery": 5093,
      "distinguished": 5094,
      "credit": 5095,
      "recollection": 5096,
      "July": 5097,
      "hellish": 5098,
      "tivity": 5099,
      "suggested": 5100,
      "scared": 5101,
      "authority": 5102,
      "Majesty": 5103,
      "dawn": 5104,
      "renewed": 5105,
      "envy": 5106,
      "convey": 5107,
      "coward": 5108,
      "acknowled": 5109,
      "Indians": 5110,
      "principles": 5111,
      "sacrifice": 5112,
      "principal": 5113,
      "enclosure": 5114,
      "perplexed": 5115,
      "laboratory": 5116,
      "realize": 5117,
      "Africa": 5118,
      "evidently": 5119,
      "ravenous": 5120,
      "expedition": 5121,
      "domestic": 5122,
      "neglected": 5123,
      "excitement": 5124,
      "thoroughly": 5125,
      "pronounced": 5126,
      "nineteen": 5127,
      "psycholog": 5128,
      "Selby": 5129,
      "Widow": 5130,
      "dangers": 5131,
      ").": 5132,
      ");": 5133,
      ",—": 5134,
      "19": 5135,
      "3K": 5136,
      "Adri": 5137,
      "Apri": 5138,
      "Com": 5139,
      "Each": 5140,
      "Hal": 5141,
      "Old": 5142,
      "Pray": 5143,
      "Sm": 5144,
      "Sall": 5145,
      "Sever": 5146,
      "Tem": 5147,
      "VII": 5148,
      "Word": 5149,
      "ahead": 5150,
      "cto": 5151,
      "cof": 5152,
      "dine": 5153,
      "flight": 5154,
      "gation": 5155,
      "gate": 5156,
      "hint": 5157,
      "iers": 5158,
      "izing": 5159,
      "kiss": 5160,
      "pul": 5161,
      "pest": 5162,
      "pic": 5163,
      "rated": 5164,
      "rings": 5165,
      "rains": 5166,
      "ude": 5167,
      "yon": 5168,
      "yal": 5169,
      "yaw": 5170,
      "zy": 5171,
      "zon": 5172,
      "го": 5173,
      "мо": 5174,
      "theless": 5175,
      "inable": 5176,
      "informed": 5177,
      "innum": 5178,
      "recomm": 5179,
      "anded": 5180,
      "toil": 5181,
      "ense": 5182,
      "assem": 5183,
      "issu": 5184,
      "offi": 5185,
      "lley": 5186,
      "haul": 5187,
      "serene": 5188,
      "beam": 5189,
      "nod": 5190,
      "chased": 5191,
      "idle": 5192,
      "ghastly": 5193,
      "veins": 5194,
      "vember": 5195,
      "cep": 5196,
      "sobs": 5197,
      "sowed": 5198,
      "lift": 5199,
      "ents": 5200,
      "immense": 5201,
      "adi": 5202,
      "advers": 5203,
      "irons": 5204,
      "feat": 5205,
      "sage": 5206,
      "saving": 5207,
      "ooting": 5208,
      "shif": 5209,
      "abled": 5210,
      "ables": 5211,
      "keen": 5212,
      "tire": 5213,
      "tice": 5214,
      "whipped": 5215,
      "pel": 5216,
      "ource": 5217,
      "cot": 5218,
      "coal": 5219,
      "polit": 5220,
      "sheet": 5221,
      "ulars": 5222,
      "doom": 5223,
      "quake": 5224,
      "moan": 5225,
      "faced": 5226,
      "disput": 5227,
      "disaster": 5228,
      "dispositions": 5229,
      "intolerable": 5230,
      "acles": 5231,
      "accompany": 5232,
      "procure": 5233,
      "proportion": 5234,
      "spit": 5235,
      "sphere": 5236,
      "spade": 5237,
      "space": 5238,
      "founded": 5239,
      "nevertheless": 5240,
      "firing": 5241,
      "pipes": 5242,
      "howl": 5243,
      "vessels": 5244,
      "chemist": 5245,
      "volley": 5246,
      "rents": 5247,
      "ucks": 5248,
      "monot": 5249,
      "stomach": 5250,
      "Nov": 5251,
      "November": 5252,
      "species": 5253,
      "contained": 5254,
      "boats": 5255,
      "smart": 5256,
      "appears": 5257,
      "nerves": 5258,
      "scand": 5259,
      "denial": 5260,
      "kindly": 5261,
      "parce": 5262,
      "sensible": 5263,
      "souls": 5264,
      "marred": 5265,
      "marble": 5266,
      "paint": 5267,
      "painful": 5268,
      "belief": 5269,
      "northern": 5270,
      "Beau": 5271,
      "wooden": 5272,
      "string": 5273,
      "strain": 5274,
      "phr": 5275,
      "certainty": 5276,
      "continue": 5277,
      "wrinkled": 5278,
      "actually": 5279,
      "actual": 5280,
      "plays": 5281,
      "igned": 5282,
      "zement": 5283,
      "reasonable": 5284,
      "buy": 5285,
      "rawled": 5286,
      "chains": 5287,
      "eating": 5288,
      "pressing": 5289,
      "listlessly": 5290,
      "claws": 5291,
      "footsteps": 5292,
      "charmed": 5293,
      "asking": 5294,
      "prompt": 5295,
      "treach": 5296,
      "calcul": 5297,
      "incred": 5298,
      "droop": 5299,
      "secrets": 5300,
      "midst": 5301,
      "summit": 5302,
      "sincere": 5303,
      "passionate": 5304,
      "licity": 5305,
      "tremendous": 5306,
      "Something": 5307,
      "gentlemen": 5308,
      "Most": 5309,
      "particulars": 5310,
      "satisfy": 5311,
      "maj": 5312,
      "male": 5313,
      "burgh": 5314,
      "needs": 5315,
      "doubtless": 5316,
      "harbour": 5317,
      "fatigu": 5318,
      "vanity": 5319,
      "remainder": 5320,
      "increasing": 5321,
      "birth": 5322,
      "liter": 5323,
      "suffici": 5324,
      "drown": 5325,
      "bitterness": 5326,
      "occupations": 5327,
      "terrified": 5328,
      "France": 5329,
      "Francis": 5330,
      "confessed": 5331,
      "duties": 5332,
      "fetched": 5333,
      "Brazil": 5334,
      "creeping": 5335,
      "strike": 5336,
      "colours": 5337,
      "fascination": 5338,
      "spreading": 5339,
      "blowing": 5340,
      "washing": 5341,
      "contriv": 5342,
      "leaned": 5343,
      "importance": 5344,
      "amazement": 5345,
      "infinitely": 5346,
      "witnesses": 5347,
      "counter": 5348,
      "cracked": 5349,
      "constantly": 5350,
      "restore": 5351,
      "Rogers": 5352,
      "banks": 5353,
      "feeble": 5354,
      "suspic": 5355,
      "merchants": 5356,
      "timber": 5357,
      "furnish": 5358,
      "furnished": 5359,
      "Peters": 5360,
      "agitated": 5361,
      "distinguish": 5362,
      "introduced": 5363,
      "fulfilled": 5364,
      "wishes": 5365,
      "regarded": 5366,
      "arrange": 5367,
      "abhorrence": 5368,
      "heavi": 5369,
      "argument": 5370,
      "splendid": 5371,
      "dainty": 5372,
      "affairs": 5373,
      "audience": 5374,
      "swiftness": 5375,
      "nurse": 5376,
      "ghosts": 5377,
      "improvement": 5378,
      "intervals": 5379,
      "incidents": 5380,
      "elevated": 5381,
      "enthusiasm": 5382,
      "Pigeon": 5383,
      "Scripture": 5384,
      "pattern": 5385,
      "univers": 5386,
      "enterprise": 5387,
      "darted": 5388,
      "abandoned": 5389,
      "poetry": 5390,
      "linen": 5391,
      "blossoms": 5392,
      "style": 5393,
      "defend": 5394,
      "magnificent": 5395,
      "Footman": 5396,
      "durst": 5397,
      "tackle": 5398,
      "beetle": 5399,
      "ambition": 5400,
      "performan": 5401,
      "April": 5402,
      "Half": 5403,
      "Sallee": 5404,
      "Several": 5405,
      "coffee": 5406,
      "innumerable": 5407,
      ".]": 5408,
      "08": 5409,
      "09": 5410,
      "Bar": 5411,
      "Card": 5412,
      "Fer": 5413,
      "Ger": 5414,
      "Glady": 5415,
      "Hill": 5416,
      "Joh": 5417,
      "Jeff": 5418,
      "Lou": 5419,
      "Master": 5420,
      "Next": 5421,
      "OM": 5422,
      "Ox": 5423,
      "Other": 5424,
      "Octo": 5425,
      "Sa": 5426,
      "Swit": 5427,
      "Scot": 5428,
      "VIII": 5429,
      "ae": 5430,
      "az": 5431,
      "cade": 5432,
      "coff": 5433,
      "ciful": 5434,
      "citi": 5435,
      "danced": 5436,
      "ees": 5437,
      "eur": 5438,
      "faded": 5439,
      "frag": 5440,
      "gal": 5441,
      "han": 5442,
      "ili": 5443,
      "ials": 5444,
      "job": 5445,
      "kward": 5446,
      "kespe": 5447,
      "lately": 5448,
      "mask": 5449,
      "mult": 5450,
      "nished": 5451,
      "oar": 5452,
      "owe": 5453,
      "pare": 5454,
      "park": 5455,
      "padd": 5456,
      "pump": 5457,
      "sche": 5458,
      "slip": 5459,
      "slaughter": 5460,
      "tour": 5461,
      "tend": 5462,
      "taw": 5463,
      "vines": 5464,
      "са": 5465,
      "thetic": 5466,
      "inate": 5467,
      "inspir": 5468,
      "inquest": 5469,
      "infli": 5470,
      "invisible": 5471,
      "remed": 5472,
      "repose": 5473,
      "revol": 5474,
      "resem": 5475,
      "erous": 5476,
      "error": 5477,
      "ator": 5478,
      "onies": 5479,
      "toise": 5480,
      "towel": 5481,
      "ener": 5482,
      "ench": 5483,
      "ender": 5484,
      "aspect": 5485,
      "orch": 5486,
      "artic": 5487,
      "ller": 5488,
      "estic": 5489,
      "bees": 5490,
      "beard": 5491,
      "leg": 5492,
      "stalk": 5493,
      "staring": 5494,
      "chatter": 5495,
      "soe": 5496,
      "sobbing": 5497,
      "lime": 5498,
      "entering": 5499,
      "impressed": 5500,
      "adise": 5501,
      "deaf": 5502,
      "detail": 5503,
      "details": 5504,
      "develo": 5505,
      "notions": 5506,
      "reduced": 5507,
      "urs": 5508,
      "shan": 5509,
      "shone": 5510,
      "shine": 5511,
      "abb": 5512,
      "abo": 5513,
      "abated": 5514,
      "cken": 5515,
      "agger": 5516,
      "button": 5517,
      "tives": 5518,
      "suited": 5519,
      "sullen": 5520,
      "cared": 5521,
      "constru": 5522,
      "console": 5523,
      "confined": 5524,
      "ardently": 5525,
      "sheep": 5526,
      "explo": 5527,
      "lace": 5528,
      "lapsed": 5529,
      "illust": 5530,
      "tooth": 5531,
      "estate": 5532,
      "facul": 5533,
      "compo": 5534,
      "commen": 5535,
      "compre": 5536,
      "Itali": 5537,
      "rubbed": 5538,
      "ache": 5539,
      "procur": 5540,
      "shouldn": 5541,
      "divers": 5542,
      "medic": 5543,
      "meddle": 5544,
      "plent": 5545,
      "plans": 5546,
      "blu": 5547,
      "handed": 5548,
      "glance": 5549,
      "pig": 5550,
      "pile": 5551,
      "inevit": 5552,
      "longing": 5553,
      "howling": 5554,
      "vesti": 5555,
      "gray": 5556,
      "grind": 5557,
      "fling": 5558,
      "flaming": 5559,
      "undertake": 5560,
      "ully": 5561,
      "thinks": 5562,
      "lets": 5563,
      "obtain": 5564,
      "happens": 5565,
      "restless": 5566,
      "working": 5567,
      "consisted": 5568,
      "surface": 5569,
      "rease": 5570,
      "parties": 5571,
      "appla": 5572,
      "brut": 5573,
      "brass": 5574,
      "cuit": 5575,
      "awfully": 5576,
      "awkward": 5577,
      "harder": 5578,
      "breach": 5579,
      "believing": 5580,
      "waving": 5581,
      "conditions": 5582,
      "curse": 5583,
      "attent": 5584,
      "spoil": 5585,
      "resolving": 5586,
      "grey": 5587,
      "deadly": 5588,
      "helpless": 5589,
      "delicate": 5590,
      "subs": 5591,
      "directions": 5592,
      "chosen": 5593,
      "cultiv": 5594,
      "address": 5595,
      "sweat": 5596,
      "singing": 5597,
      "relate": 5598,
      "comply": 5599,
      "tremulous": 5600,
      "learning": 5601,
      "earthquake": 5602,
      "affected": 5603,
      "comfortably": 5604,
      "shortly": 5605,
      "bloody": 5606,
      "capac": 5607,
      "grotes": 5608,
      "floated": 5609,
      "mali": 5610,
      "praying": 5611,
      "collar": 5612,
      "entertain": 5613,
      "admit": 5614,
      "harmon": 5615,
      "quarters": 5616,
      "gardeners": 5617,
      "Everybody": 5618,
      "examine": 5619,
      "Dec": 5620,
      "fainted": 5621,
      "knelt": 5622,
      "mainland": 5623,
      "sofa": 5624,
      "animals": 5625,
      "devils": 5626,
      "lawyer": 5627,
      "croquet": 5628,
      "assisted": 5629,
      "fleet": 5630,
      "temperament": 5631,
      "trustees": 5632,
      "cheerfully": 5633,
      "stretch": 5634,
      "motionless": 5635,
      "baskets": 5636,
      "ragged": 5637,
      "ification": 5638,
      "supported": 5639,
      "pract": 5640,
      "exceeding": 5641,
      "protection": 5642,
      "endeavouring": 5643,
      "frost": 5644,
      "speedily": 5645,
      "slightest": 5646,
      "fascinated": 5647,
      "Uncle": 5648,
      "rapid": 5649,
      "cases": 5650,
      "attacked": 5651,
      "frowning": 5652,
      "pupils": 5653,
      "loathing": 5654,
      "luxu": 5655,
      "soldiers": 5656,
      "fashionable": 5657,
      "echoed": 5658,
      "Guinea": 5659,
      "material": 5660,
      "materials": 5661,
      "practice": 5662,
      "polite": 5663,
      "benevolent": 5664,
      "contemplated": 5665,
      "hogshe": 5666,
      "bushes": 5667,
      "educated": 5668,
      "declined": 5669,
      "comforted": 5670,
      "pallid": 5671,
      "connected": 5672,
      "loathsome": 5673,
      "plunged": 5674,
      "elaborate": 5675,
      "ivory": 5676,
      "вер": 5677,
      "government": 5678,
      "reserved": 5679,
      "dollars": 5680,
      "ferryboat": 5681,
      "hallooed": 5682,
      "Shakespe": 5683,
      "zerland": 5684,
      "security": 5685,
      "roots": 5686,
      "proposal": 5687,
      "Crusoe": 5688,
      "confirmed": 5689,
      "Adrian": 5690,
      "majestic": 5691,
      "fatigued": 5692,
      "sufficiently": 5693,
      "suspicion": 5694,
      "performance": 5695,
      "Gladys": 5696,
      "John": 5697,
      "Oxford": 5698,
      "October": 5699,
      "Switzerland": 5700,
      "multitude": 5701,
      "compreh": 5702,
      "Italian": 5703,
      "Shakespeare": 5704,
      "02": 5705,
      "07": 5706,
      "13": 5707,
      "8K": 5708,
      "Alf": 5709,
      "Agri": 5710,
      "Bet": 5711,
      "Co": 5712,
      "Cor": 5713,
      "Che": 5714,
      "Could": 5715,
      "Call": 5716,
      "ES": 5717,
      "Gro": 5718,
      "Great": 5719,
      "Give": 5720,
      "Hood": 5721,
      "Hold": 5722,
      "IX": 5723,
      "Jes": 5724,
      "Jones": 5725,
      "Krem": 5726,
      "Kna": 5727,
      "Man": 5728,
      "Mill": 5729,
      "Pl": 5730,
      "Rh": 5731,
      "Ru": 5732,
      "Rom": 5733,
      "Sing": 5734,
      "Ti": 5735,
      "Wot": 5736,
      "ald": 5737,
      "ail": 5738,
      "alike": 5739,
      "bby": 5740,
      "bend": 5741,
      "bats": 5742,
      "bending": 5743,
      "dun": 5744,
      "damp": 5745,
      "dancing": 5746,
      "fed": 5747,
      "fare": 5748,
      "faster": 5749,
      "fitting": 5750,
      "flying": 5751,
      "gence": 5752,
      "gang": 5753,
      "iest": 5754,
      "jure": 5755,
      "jaw": 5756,
      "kite": 5757,
      "kers": 5758,
      "lou": 5759,
      "lust": 5760,
      "lump": 5761,
      "lament": 5762,
      "mould": 5763,
      "nt": 5764,
      "nour": 5765,
      "oath": 5766,
      "ogra": 5767,
      "obey": 5768,
      "pour": 5769,
      "pang": 5770,
      "phas": 5771,
      "purely": 5772,
      "pulse": 5773,
      "panting": 5774,
      "sno": 5775,
      "slo": 5776,
      "swell": 5777,
      "tasted": 5778,
      "uf": 5779,
      "usage": 5780,
      "vow": 5781,
      "vide": 5782,
      "wart": 5783,
      "wink": 5784,
      "xes": 5785,
      "двер": 5786,
      "про": 5787,
      "—‘": 5788,
      "thors": 5789,
      "anni": 5790,
      "insp": 5791,
      "inexpres": 5792,
      "rever": 5793,
      "rejo": 5794,
      "report": 5795,
      "recess": 5796,
      "oul": 5797,
      "atmo": 5798,
      "eds": 5799,
      "toes": 5800,
      "tori": 5801,
      "enabled": 5802,
      "asing": 5803,
      "mechan": 5804,
      "hare": 5805,
      "hailed": 5806,
      "habits": 5807,
      "beha": 5808,
      "beck": 5809,
      "becuz": 5810,
      "leaped": 5811,
      "stag": 5812,
      "whist": 5813,
      "cember": 5814,
      "uten": 5815,
      "soever": 5816,
      "wels": 5817,
      "alarmed": 5818,
      "ower": 5819,
      "irre": 5820,
      "irts": 5821,
      "ribb": 5822,
      "omit": 5823,
      "omni": 5824,
      "unlike": 5825,
      "unning": 5826,
      "fection": 5827,
      "shining": 5828,
      "shrugged": 5829,
      "shooting": 5830,
      "agu": 5831,
      "keeper": 5832,
      "neat": 5833,
      "tight": 5834,
      "sus": 5835,
      "consp": 5836,
      "convi": 5837,
      "cope": 5838,
      "coats": 5839,
      "nowadays": 5840,
      "lob": 5841,
      "gods": 5842,
      "amused": 5843,
      "rapt": 5844,
      "somehow": 5845,
      "resignation": 5846,
      "extrem": 5847,
      "lac": 5848,
      "perfu": 5849,
      "worm": 5850,
      "ppa": 5851,
      "wholes": 5852,
      "arty": 5853,
      "artistic": 5854,
      "ittle": 5855,
      "disci": 5856,
      "akened": 5857,
      "forever": 5858,
      "access": 5859,
      "proof": 5860,
      "prodi": 5861,
      "prosper": 5862,
      "provide": 5863,
      "cane": 5864,
      "spark": 5865,
      "thanked": 5866,
      "dipped": 5867,
      "plat": 5868,
      "reader": 5869,
      "rowing": 5870,
      "handle": 5871,
      "inking": 5872,
      "gliness": 5873,
      "glorious": 5874,
      "everywhere": 5875,
      "plac": 5876,
      "desk": 5877,
      "dono": 5878,
      "appointed": 5879,
      "vious": 5880,
      "shapen": 5881,
      "flour": 5882,
      "umn": 5883,
      "mustn": 5884,
      "gau": 5885,
      "leton": 5886,
      "misshapen": 5887,
      "obtained": 5888,
      "closer": 5889,
      "series": 5890,
      "carriage": 5891,
      "happier": 5892,
      "spec": 5893,
      "spected": 5894,
      "horn": 5895,
      "minds": 5896,
      "brook": 5897,
      "scent": 5898,
      "surve": 5899,
      "surmount": 5900,
      "udd": 5901,
      "prepare": 5902,
      "cerity": 5903,
      "kinds": 5904,
      "appar": 5905,
      "fog": 5906,
      "marched": 5907,
      "marbles": 5908,
      "torted": 5909,
      "beds": 5910,
      "jection": 5911,
      "jewelled": 5912,
      "steam": 5913,
      "steady": 5914,
      "curls": 5915,
      "currents": 5916,
      "attending": 5917,
      "strangled": 5918,
      "strangers": 5919,
      "sons": 5920,
      "sincerity": 5921,
      "traversed": 5922,
      "firearms": 5923,
      "hush": 5924,
      "countrymen": 5925,
      "authors": 5926,
      "visi": 5927,
      "destined": 5928,
      "truly": 5929,
      "barrow": 5930,
      "dreaded": 5931,
      "subst": 5932,
      "drifting": 5933,
      "amongst": 5934,
      "wishing": 5935,
      "wildly": 5936,
      "accused": 5937,
      "imaginable": 5938,
      "sweep": 5939,
      "pictured": 5940,
      "signed": 5941,
      "signals": 5942,
      "gentleness": 5943,
      "musket": 5944,
      "drops": 5945,
      "famous": 5946,
      "whispers": 5947,
      "matters": 5948,
      "crew": 5949,
      "necessarily": 5950,
      "becomes": 5951,
      "Moors": 5952,
      "system": 5953,
      "pushed": 5954,
      "bounded": 5955,
      "grove": 5956,
      "groans": 5957,
      "thousands": 5958,
      "arrival": 5959,
      "float": 5960,
      "voyages": 5961,
      "Englishman": 5962,
      "remembering": 5963,
      "malice": 5964,
      "seasons": 5965,
      "prayers": 5966,
      "badly": 5967,
      "immediate": 5968,
      "occasioned": 5969,
      "admire": 5970,
      "needn": 5971,
      "judged": 5972,
      "peaceful": 5973,
      "mistaken": 5974,
      "pensive": 5975,
      "instruction": 5976,
      "petition": 5977,
      "flick": 5978,
      "variety": 5979,
      "widder": 5980,
      "relieved": 5981,
      "leading": 5982,
      "chiefly": 5983,
      "tively": 5984,
      "December": 5985,
      "terrific": 5986,
      "profound": 5987,
      "dressing": 5988,
      "excuse": 5989,
      "uttering": 5990,
      "depended": 5991,
      "exertion": 5992,
      "belongs": 5993,
      "favourable": 5994,
      "creep": 5995,
      "northward": 5996,
      "executed": 5997,
      ".’”": 5998,
      "deserted": 5999,
      "rags": 6000,
      "resumed": 6001,
      "slaves": 6002,
      "testim": 6003,
      "moderate": 6004,
      "contribut": 6005,
      "characters": 6006,
      "disturb": 6007,
      "climate": 6008,
      "climbed": 6009,
      "philosop": 6010,
      "tranquil": 6011,
      "banished": 6012,
      "instinct": 6013,
      "mockery": 6014,
      "descend": 6015,
      "studies": 6016,
      "Robinson": 6017,
      "brows": 6018,
      "ignorance": 6019,
      "executioner": 6020,
      "loathed": 6021,
      "introduce": 6022,
      "apparent": 6023,
      "shuddering": 6024,
      "moods": 6025,
      "arguments": 6026,
      "respectable": 6027,
      "Quick": 6028,
      "adored": 6029,
      "dawned": 6030,
      "anticip": 6031,
      "conveyed": 6032,
      "folded": 6033,
      "recognized": 6034,
      "crimson": 6035,
      "criminal": 6036,
      "sympathize": 6037,
      "practic": 6038,
      "Wait": 6039,
      "robber": 6040,
      "dramatic": 6041,
      "Both": 6042,
      "mortal": 6043,
      "wicker": 6044,
      "advance": 6045,
      "biscuit": 6046,
      "intense": 6047,
      "waistcoat": 6048,
      "brick": 6049,
      "embraced": 6050,
      "capital": 6051,
      "acquaintance": 6052,
      "eloquent": 6053,
      "fierce": 6054,
      "obscure": 6055,
      "nineteenth": 6056,
      "yonder": 6057,
      "heavily": 6058,
      "Cardiff": 6059,
      "Louis": 6060,
      "coffin": 6061,
      "hansom": 6062,
      "composure": 6063,
      "harmony": 6064,
      "Agrippa": 6065,
      "Jesus": 6066,
      "Krempe": 6067,
      "Knave": 6068,
      "Miller": 6069,
      "Wotton": 6070,
      "atmosphere": 6071,
      "beckoned": 6072,
      "wholesome": 6073,
      "prodigious": 6074,
      "1K": 6075,
      "1st": 6076,
      "26": 6077,
      "Am": 6078,
      "Ber": 6079,
      "Cur": 6080,
      "Cons": 6081,
      "Dan": 6082,
      "Em": 6083,
      "East": 6084,
      "Five": 6085,
      "Hard": 6086,
      "Im": 6087,
      "Jew": 6088,
      "Kel": 6089,
      "Lat": 6090,
      "Law": 6091,
      "Mis": 6092,
      "Night": 6093,
      "Neither": 6094,
      "PR": 6095,
      "Red": 6096,
      "Sin": 6097,
      "Spain": 6098,
      "Spir": 6099,
      "Sabb": 6100,
      "Too": 6101,
      "Tues": 6102,
      "US": 6103,
      "apt": 6104,
      "actions": 6105,
      "bred": 6106,
      "brid": 6107,
      "boot": 6108,
      "base": 6109,
      "bunch": 6110,
      "elapsed": 6111,
      "flitt": 6112,
      "fits": 6113,
      "fought": 6114,
      "gon": 6115,
      "gas": 6116,
      "gross": 6117,
      "ians": 6118,
      "kn": 6119,
      "lof": 6120,
      "mas": 6121,
      "mits": 6122,
      "mates": 6123,
      "nc": 6124,
      "odi": 6125,
      "oars": 6126,
      "pite": 6127,
      "pine": 6128,
      "pages": 6129,
      "penter": 6130,
      "prud": 6131,
      "rul": 6132,
      "ride": 6133,
      "rash": 6134,
      "sang": 6135,
      "sna": 6136,
      "swelled": 6137,
      "tu": 6138,
      "tan": 6139,
      "trot": 6140,
      "uce": 6141,
      "vity": 6142,
      "wag": 6143,
      "waf": 6144,
      "ânc": 6145,
      "нь": 6146,
      "—.": 6147,
      "thimble": 6148,
      "ancy": 6149,
      "inted": 6150,
      "injury": 6151,
      "rear": 6152,
      "rele": 6153,
      "repair": 6154,
      "toss": 6155,
      "toils": 6156,
      "associ": 6157,
      "org": 6158,
      "orgi": 6159,
      "heal": 6160,
      "itz": 6161,
      "itute": 6162,
      "arti": 6163,
      "llo": 6164,
      "seve": 6165,
      "secut": 6166,
      "seize": 6167,
      "bel": 6168,
      "bean": 6169,
      "befallen": 6170,
      "sta": 6171,
      "stal": 6172,
      "stif": 6173,
      "stature": 6174,
      "whiting": 6175,
      "chat": 6176,
      "chose": 6177,
      "choose": 6178,
      "ldman": 6179,
      "iding": 6180,
      "veil": 6181,
      "wilf": 6182,
      "cerem": 6183,
      "robb": 6184,
      "rolling": 6185,
      "sore": 6186,
      "verdict": 6187,
      "lier": 6188,
      "entit": 6189,
      "alas": 6190,
      "imper": 6191,
      "impres": 6192,
      "irk": 6193,
      "iring": 6194,
      "ric": 6195,
      "ripp": 6196,
      "rium": 6197,
      "rivers": 6198,
      "unknown": 6199,
      "uncommon": 6200,
      "unwilling": 6201,
      "unlocked": 6202,
      "fere": 6203,
      "feard": 6204,
      "dew": 6205,
      "dete": 6206,
      "defi": 6207,
      "decor": 6208,
      "deform": 6209,
      "degrad": 6210,
      "shr": 6211,
      "shun": 6212,
      "shroom": 6213,
      "tie": 6214,
      "cture": 6215,
      "suspected": 6216,
      "pepper": 6217,
      "congrat": 6218,
      "converse": 6219,
      "lots": 6220,
      "ifully": 6221,
      "bored": 6222,
      "bolt": 6223,
      "shewed": 6224,
      "raising": 6225,
      "ressive": 6226,
      "respond": 6227,
      "exchange": 6228,
      "exclam": 6229,
      "indic": 6230,
      "doct": 6231,
      "lame": 6232,
      "quo": 6233,
      "perceiving": 6234,
      "permitted": 6235,
      "perfection": 6236,
      "motives": 6237,
      "illum": 6238,
      "anted": 6239,
      "seeking": 6240,
      "geons": 6241,
      "hop": 6242,
      "hospit": 6243,
      "factor": 6244,
      "compared": 6245,
      "disc": 6246,
      "disposed": 6247,
      "distemper": 6248,
      "dissip": 6249,
      "hereafter": 6250,
      "ficial": 6251,
      "rub": 6252,
      "daytime": 6253,
      "propose": 6254,
      "prophe": 6255,
      "pleaded": 6256,
      "spied": 6257,
      "sprung": 6258,
      "civil": 6259,
      "dial": 6260,
      "plate": 6261,
      "willingly": 6262,
      "mushroom": 6263,
      "blasted": 6264,
      "afterward": 6265,
      "begins": 6266,
      "Thank": 6267,
      "mostly": 6268,
      "piano": 6269,
      "inement": 6270,
      "shapes": 6271,
      "shabby": 6272,
      "flamed": 6273,
      "chem": 6274,
      "cheered": 6275,
      "cheese": 6276,
      "pace": 6277,
      "gig": 6278,
      "gale": 6279,
      "answ": 6280,
      "missing": 6281,
      "obst": 6282,
      "cloth": 6283,
      "countries": 6284,
      "carpenter": 6285,
      "mons": 6286,
      "stole": 6287,
      "stories": 6288,
      "stolen": 6289,
      "cler": 6290,
      "clasped": 6291,
      "resting": 6292,
      "special": 6293,
      "spective": 6294,
      "bert": 6295,
      "berries": 6296,
      "minded": 6297,
      "Hucky": 6298,
      "sets": 6299,
      "intention": 6300,
      "scrat": 6301,
      "consist": 6302,
      "deny": 6303,
      "parti": 6304,
      "parched": 6305,
      "loveliness": 6306,
      "torn": 6307,
      "curved": 6308,
      "curled": 6309,
      "corrid": 6310,
      "homeward": 6311,
      "leather": 6312,
      "cries": 6313,
      "laden": 6314,
      "purity": 6315,
      "easier": 6316,
      "vision": 6317,
      "dued": 6318,
      "barren": 6319,
      "diff": 6320,
      "falls": 6321,
      "subdued": 6322,
      "dripping": 6323,
      "drifted": 6324,
      "actress": 6325,
      "ski": 6326,
      "skull": 6327,
      "observing": 6328,
      "interfere": 6329,
      "highly": 6330,
      "commonly": 6331,
      "continual": 6332,
      "laborious": 6333,
      "addition": 6334,
      "imaginary": 6335,
      "nigger": 6336,
      "catching": 6337,
      "trick": 6338,
      "ggard": 6339,
      "lization": 6340,
      "Poll": 6341,
      "avenue": 6342,
      "whiskers": 6343,
      "mounted": 6344,
      "pretended": 6345,
      "villains": 6346,
      "Moor": 6347,
      "reckoned": 6348,
      "doubted": 6349,
      "mouths": 6350,
      "captivity": 6351,
      "warmed": 6352,
      "extent": 6353,
      "burg": 6354,
      "elect": 6355,
      "dais": 6356,
      "crum": 6357,
      "crush": 6358,
      "crushed": 6359,
      "needed": 6360,
      "touching": 6361,
      "changing": 6362,
      "crash": 6363,
      "plants": 6364,
      "hanged": 6365,
      "trans": 6366,
      "completed": 6367,
      "journal": 6368,
      "swore": 6369,
      "Duke": 6370,
      "collect": 6371,
      "bbard": 6372,
      "sadness": 6373,
      "mutual": 6374,
      "rustling": 6375,
      "consciousness": 6376,
      "posts": 6377,
      "example": 6378,
      "occupation": 6379,
      "countenances": 6380,
      "twilight": 6381,
      "languidly": 6382,
      "wedding": 6383,
      "determination": 6384,
      "remarks": 6385,
      "apprehensive": 6386,
      "dining": 6387,
      "approaching": 6388,
      "Didn": 6389,
      "eagerness": 6390,
      "simil": 6391,
      "repeating": 6392,
      "punish": 6393,
      "punished": 6394,
      "Maybe": 6395,
      "pitch": 6396,
      "solemnly": 6397,
      "joining": 6398,
      "screamed": 6399,
      "slates": 6400,
      "settling": 6401,
      "equally": 6402,
      "mirac": 6403,
      "assumed": 6404,
      "counsel": 6405,
      "treatment": 6406,
      "beaten": 6407,
      "mourning": 6408,
      "conducted": 6409,
      "fashioned": 6410,
      "strolled": 6411,
      "scenery": 6412,
      "humble": 6413,
      "People": 6414,
      "Remember": 6415,
      "recollect": 6416,
      "excessively": 6417,
      "cheerfulness": 6418,
      "bacon": 6419,
      "wisdom": 6420,
      "reminded": 6421,
      "annoy": 6422,
      "heaved": 6423,
      "convenient": 6424,
      "convenience": 6425,
      "rudder": 6426,
      "impatiently": 6427,
      "professor": 6428,
      "consult": 6429,
      "guessed": 6430,
      "struggling": 6431,
      "experiments": 6432,
      "title": 6433,
      "recovering": 6434,
      "original": 6435,
      "tumbling": 6436,
      "testi": 6437,
      "reproach": 6438,
      "delayed": 6439,
      "acknowledge": 6440,
      "guarded": 6441,
      "regularly": 6442,
      "principle": 6443,
      "Waldman": 6444,
      "lecture": 6445,
      "tiptoe": 6446,
      "pearls": 6447,
      "polished": 6448,
      "benevolence": 6449,
      "ecstasy": 6450,
      "axe": 6451,
      "overwhelmed": 6452,
      "bushels": 6453,
      "building": 6454,
      "AND": 6455,
      "Hubbard": 6456,
      "invention": 6457,
      "lodging": 6458,
      "extinguish": 6459,
      "extinguished": 6460,
      "Walters": 6461,
      "Walton": 6462,
      "wrapped": 6463,
      "tormented": 6464,
      "valued": 6465,
      "weapons": 6466,
      "precipices": 6467,
      "declared": 6468,
      "compliment": 6469,
      "Blânc": 6470,
      "multip": 6471,
      "squee": 6472,
      "liquor": 6473,
      "straggling": 6474,
      "engagement": 6475,
      "freedom": 6476,
      "dusky": 6477,
      "amidst": 6478,
      "preceding": 6479,
      "cowardice": 6480,
      "picnic": 6481,
      "features": 6482,
      "shift": 6483,
      "dispute": 6484,
      "monoton": 6485,
      "scandal": 6486,
      "phrase": 6487,
      "incredible": 6488,
      "literature": 6489,
      "remedy": 6490,
      "commenced": 6491,
      "applause": 6492,
      "grotesque": 6493,
      "Johnny": 6494,
      "Alfred": 6495,
      "Singleton": 6496,
      "jaws": 6497,
      "ography": 6498,
      "conspic": 6499,
      "platform": 6500,
      "Kelso": 6501,
      "Sabbath": 6502,
      "Tuesday": 6503,
      "wilful": 6504,
      "robbers": 6505,
      "deformity": 6506,
      "degradation": 6507,
      ",)": 6508,
      "5K": 6509,
      "6K": 6510,
      "Ad": 6511,
      "Bur": 6512,
      "Brit": 6513,
      "Brand": 6514,
      "CK": 6515,
      "Des": 6516,
      "Down": 6517,
      "Dob": 6518,
      "FR": 6519,
      "Four": 6520,
      "Hull": 6521,
      "House": 6522,
      "IS": 6523,
      "Jack": 6524,
      "Ke": 6525,
      "Lory": 6526,
      "Mer": 6527,
      "More": 6528,
      "Number": 6529,
      "OF": 6530,
      "Oft": 6531,
      "Pat": 6532,
      "Pap": 6533,
      "ST": 6534,
      "Soo": 6535,
      "Sher": 6536,
      "Said": 6537,
      "Ta": 6538,
      "Ting": 6539,
      "Turn": 6540,
      "UR": 6541,
      "Vene": 6542,
      "awe": 6543,
      "afeard": 6544,
      "bat": 6545,
      "bust": 6546,
      "bud": 6547,
      "bars": 6548,
      "bins": 6549,
      "cable": 6550,
      "cris": 6551,
      "cunning": 6552,
      "date": 6553,
      "fis": 6554,
      "fes": 6555,
      "fring": 6556,
      "fenced": 6557,
      "frank": 6558,
      "fying": 6559,
      "fools": 6560,
      "gates": 6561,
      "grum": 6562,
      "gorge": 6563,
      "gasped": 6564,
      "hori": 6565,
      "hinted": 6566,
      "ib": 6567,
      "iated": 6568,
      "jur": 6569,
      "kin": 6570,
      "kings": 6571,
      "lunch": 6572,
      "maker": 6573,
      "nu": 6574,
      "nut": 6575,
      "olive": 6576,
      "pil": 6577,
      "pap": 6578,
      "pum": 6579,
      "prem": 6580,
      "raged": 6581,
      "rats": 6582,
      "swords": 6583,
      "tast": 6584,
      "tap": 6585,
      "wn": 6586,
      "wan": 6587,
      "warts": 6588,
      "xter": 6589,
      "ys": 6590,
      "zens": 6591,
      "ль": 6592,
      "она": 6593,
      "по": 6594,
      "те": 6595,
      "ти": 6596,
      "ча": 6597,
      "theories": 6598,
      "anter": 6599,
      "anity": 6600,
      "analy": 6601,
      "inse": 6602,
      "inch": 6603,
      "inde": 6604,
      "incon": 6605,
      "inward": 6606,
      "infer": 6607,
      "injustice": 6608,
      "infant": 6609,
      "incapable": 6610,
      "reput": 6611,
      "rels": 6612,
      "recovery": 6613,
      "rejoined": 6614,
      "represented": 6615,
      "ert": 6616,
      "ato": 6617,
      "ators": 6618,
      "token": 6619,
      "toler": 6620,
      "ensu": 6621,
      "envi": 6622,
      "enclosed": 6623,
      "ision": 6624,
      "isters": 6625,
      "offic": 6626,
      "orous": 6627,
      "ingen": 6628,
      "melo": 6629,
      "army": 6630,
      "arling": 6631,
      "argue": 6632,
      "estern": 6633,
      "haw": 6634,
      "haggard": 6635,
      "leaf": 6636,
      "stab": 6637,
      "stum": 6638,
      "lded": 6639,
      "ider": 6640,
      "idable": 6641,
      "iddy": 6642,
      "withered": 6643,
      "ceiling": 6644,
      "robe": 6645,
      "uted": 6646,
      "verily": 6647,
      "liest": 6648,
      "likes": 6649,
      "forsa": 6650,
      "yous": 6651,
      "images": 6652,
      "rier": 6653,
      "united": 6654,
      "uninhabited": 6655,
      "undisturbed": 6656,
      "feather": 6657,
      "female": 6658,
      "delive": 6659,
      "depressed": 6660,
      "dexter": 6661,
      "sacred": 6662,
      "ooped": 6663,
      "upset": 6664,
      "ckets": 6665,
      "net": 6666,
      "neli": 6667,
      "outcast": 6668,
      "peak": 6669,
      "peering": 6670,
      "caves": 6671,
      "cavern": 6672,
      "congre": 6673,
      "herd": 6674,
      "heroes": 6675,
      "cove": 6676,
      "copper": 6677,
      "police": 6678,
      "potent": 6679,
      "god": 6680,
      "amond": 6681,
      "shes": 6682,
      "shell": 6683,
      "rying": 6684,
      "rare": 6685,
      "respe": 6686,
      "manif": 6687,
      "exp": 6688,
      "exile": 6689,
      "exult": 6690,
      "induced": 6691,
      "ults": 6692,
      "lap": 6693,
      "perpet": 6694,
      "perishing": 6695,
      "perspective": 6696,
      "motive": 6697,
      "dern": 6698,
      "oodle": 6699,
      "holes": 6700,
      "holid": 6701,
      "comed": 6702,
      "compar": 6703,
      "compose": 6704,
      "dish": 6705,
      "dislike": 6706,
      "discus": 6707,
      "disgrace": 6708,
      "distorted": 6709,
      "veness": 6710,
      "foresaw": 6711,
      "foreign": 6712,
      "acious": 6713,
      "acquired": 6714,
      "sian": 6715,
      "knowed": 6716,
      "provo": 6717,
      "cannib": 6718,
      "overhead": 6719,
      "spend": 6720,
      "spray": 6721,
      "ciation": 6722,
      "cible": 6723,
      "dignity": 6724,
      "diamond": 6725,
      "asses": 6726,
      "assur": 6727,
      "medit": 6728,
      "pluck": 6729,
      "elids": 6730,
      "bliss": 6731,
      "rowed": 6732,
      "handy": 6733,
      "ically": 6734,
      "glancing": 6735,
      "mental": 6736,
      "placing": 6737,
      "pier": 6738,
      "desp": 6739,
      "despond": 6740,
      "vicious": 6741,
      "eyelids": 6742,
      "grain": 6743,
      "umbre": 6744,
      "paws": 6745,
      "pathetic": 6746,
      "rences": 6747,
      "renched": 6748,
      "gible": 6749,
      "lightened": 6750,
      "wondr": 6751,
      "stores": 6752,
      "headed": 6753,
      "cling": 6754,
      "speck": 6755,
      "spelling": 6756,
      "boatsw": 6757,
      "embers": 6758,
      "odd": 6759,
      "odour": 6760,
      "ridic": 6761,
      "joyous": 6762,
      "feels": 6763,
      "appeal": 6764,
      "broth": 6765,
      "nerve": 6766,
      "intently": 6767,
      "scri": 6768,
      "scra": 6769,
      "scattered": 6770,
      "guided": 6771,
      "guinea": 6772,
      "satin": 6773,
      "venturing": 6774,
      "brute": 6775,
      "distra": 6776,
      "hunted": 6777,
      "aware": 6778,
      "awakened": 6779,
      "southern": 6780,
      "hardened": 6781,
      "hardships": 6782,
      "rooms": 6783,
      "march": 6784,
      "mering": 6785,
      "tortoise": 6786,
      "bedroom": 6787,
      "killing": 6788,
      "Beaut": 6789,
      "Begone": 6790,
      "steer": 6791,
      "steered": 6792,
      "curred": 6793,
      "tempest": 6794,
      "strained": 6795,
      "finest": 6796,
      "trap": 6797,
      "visions": 6798,
      "hearth": 6799,
      "barred": 6800,
      "continent": 6801,
      "writ": 6802,
      "delirium": 6803,
      "sublime": 6804,
      "olars": 6805,
      "formidable": 6806,
      "spiritu": 6807,
      "skins": 6808,
      "bush": 6809,
      "interven": 6810,
      "choked": 6811,
      "genial": 6812,
      "growth": 6813,
      "hurri": 6814,
      "imaginations": 6815,
      "scholars": 6816,
      "insisted": 6817,
      "accounts": 6818,
      "calmed": 6819,
      "singled": 6820,
      "singular": 6821,
      "sleepy": 6822,
      "sleeping": 6823,
      "privile": 6824,
      "schoolhouse": 6825,
      "relation": 6826,
      "masters": 6827,
      "points": 6828,
      "reaching": 6829,
      "starting": 6830,
      "personal": 6831,
      "hundreds": 6832,
      "Six": 6833,
      "villagers": 6834,
      "towns": 6835,
      "comforts": 6836,
      "reckoning": 6837,
      "periagu": 6838,
      "bounds": 6839,
      "eyebrows": 6840,
      "risk": 6841,
      "dealt": 6842,
      "seaside": 6843,
      "expressions": 6844,
      "powerful": 6845,
      "element": 6846,
      "elements": 6847,
      "velvet": 6848,
      "honor": 6849,
      "ugal": 6850,
      "admitted": 6851,
      "judges": 6852,
      "sickened": 6853,
      "planting": 6854,
      "spectacles": 6855,
      "transport": 6856,
      "graveyard": 6857,
      "storms": 6858,
      "freely": 6859,
      "patiently": 6860,
      "pathos": 6861,
      "wander": 6862,
      "sighing": 6863,
      "mutiny": 6864,
      "decide": 6865,
      "rusty": 6866,
      "thicket": 6867,
      "rafts": 6868,
      "oppressive": 6869,
      "examining": 6870,
      "existed": 6871,
      "Paradise": 6872,
      "knee": 6873,
      "pleasantly": 6874,
      "globe": 6875,
      "wounds": 6876,
      "animation": 6877,
      "keys": 6878,
      "woke": 6879,
      "gratified": 6880,
      "superst": 6881,
      "superintend": 6882,
      "designed": 6883,
      "benefactor": 6884,
      "snowy": 6885,
      "punct": 6886,
      "cables": 6887,
      "navig": 6888,
      "shutting": 6889,
      "extravag": 6890,
      "conception": 6891,
      "preservation": 6892,
      "persuas": 6893,
      "destroying": 6894,
      "winced": 6895,
      "artists": 6896,
      "pitched": 6897,
      "intellig": 6898,
      "solemnity": 6899,
      "mingled": 6900,
      "slavery": 6901,
      "sombre": 6902,
      "rushing": 6903,
      "scream": 6904,
      "firmness": 6905,
      "tortured": 6906,
      "treasures": 6907,
      "wearily": 6908,
      "logy": 6909,
      "protect": 6910,
      "climbing": 6911,
      "separate": 6912,
      "starved": 6913,
      "brave": 6914,
      "Roads": 6915,
      "Royal": 6916,
      "bags": 6917,
      "hasten": 6918,
      "alteration": 6919,
      "feebly": 6920,
      "suspended": 6921,
      "accidents": 6922,
      "bully": 6923,
      "gesture": 6924,
      "stroke": 6925,
      "desolation": 6926,
      "southward": 6927,
      "commanded": 6928,
      "regrets": 6929,
      "hedgehog": 6930,
      "hesitating": 6931,
      "characteristic": 6932,
      "Peter": 6933,
      "puppy": 6934,
      "rambling": 6935,
      "threatened": 6936,
      "excessive": 6937,
      "afflicting": 6938,
      "arranged": 6939,
      "arranging": 6940,
      "weeping": 6941,
      "indifference": 6942,
      "Himself": 6943,
      "lucky": 6944,
      "entreated": 6945,
      "explore": 6946,
      "flashed": 6947,
      "profession": 6948,
      "hymn": 6949,
      "feverish": 6950,
      "dominated": 6951,
      "neighbourhood": 6952,
      "splendor": 6953,
      "picturesque": 6954,
      "hatchets": 6955,
      "biggest": 6956,
      "tumult": 6957,
      "soothed": 6958,
      "inquiring": 6959,
      "inquiries": 6960,
      "aisle": 6961,
      "encouraging": 6962,
      "suitable": 6963,
      "jealousy": 6964,
      "tarnished": 6965,
      "principally": 6966,
      "communication": 6967,
      "fills": 6968,
      "mournful": 6969,
      "fruitless": 6970,
      "education": 6971,
      "Moritz": 6972,
      "devouring": 6973,
      "gathering": 6974,
      "prejudices": 6975,
      "breathed": 6976,
      "physical": 6977,
      "victory": 6978,
      "revived": 6979,
      "detested": 6980,
      "expressive": 6981,
      "survive": 6982,
      "valuable": 6983,
      "sentiments": 6984,
      "weapon": 6985,
      "conjectured": 6986,
      "intimate": 6987,
      "precipit": 6988,
      "Madame": 6989,
      "Romeo": 6990,
      "figured": 6991,
      "figures": 6992,
      "30th": 6993,
      "boughs": 6994,
      "memories": 6995,
      "brandy": 6996,
      "filthy": 6997,
      "whack": 6998,
      "ributed": 6999,
      "afforded": 7000,
      "wilderness": 7001,
      "Smith": 7002,
      "ceptible": 7003,
      "adversary": 7004,
      "politics": 7005,
      "chemistry": 7006,
      "parcel": 7007,
      "Beaufort": 7008,
      "Petersburg": 7009,
      "citizens": 7010,
      "scheme": 7011,
      "bearded": 7012,
      "faculties": 7013,
      "subsist": 7014,
      "Cheshire": 7015,
      "Rhine": 7016,
      "Time": 7017,
      "inexpressible": 7018,
      "lobsters": 7019,
      "placid": 7020,
      "specim": 7021,
      "practical": 7022,
      "Lawrence": 7023,
      "Spirit": 7024,
      "organ": 7025,
      "entitled": 7026,
      "irksome": 7027,
      "doctr": 7028,
      "chemical": 7029,
      "gigantic": 7030,
      "Dobbins": 7031,
      "Keep": 7032,
      "Often": 7033,
      "fringed": 7034,
      "gorgeous": 7035,
      "horizon": 7036,
      "pilgr": 7037,
      "tapest": 7038,
      "insect": 7039,
      "officers": 7040,
      "deliverer": 7041,
      "congregation": 7042,
      "holiday": 7043,
      "cannibals": 7044,
      "umbrell": 7045,
      "boatswain": 7046,
      "Beautiful": 7047,
      "superintendent": 7048,
      "0K": 7049,
      "2K": 7050,
      "48K": 7051,
      "54K": 7052,
      "7K": 7053,
      "AL": 7054,
      "Aust": 7055,
      "Aye": 7056,
      "Bob": 7057,
      "Black": 7058,
      "Cour": 7059,
      "Char": 7060,
      "Di": 7061,
      "ED": 7062,
      "Fare": 7063,
      "Father": 7064,
      "Get": 7065,
      "Gover": 7066,
      "Het": 7067,
      "Handed": 7068,
      "Jan": 7069,
      "Jur": 7070,
      "Last": 7071,
      "Much": 7072,
      "OL": 7073,
      "Pri": 7074,
      "Pain": 7075,
      "Power": 7076,
      "Rad": 7077,
      "Right": 7078,
      "Rich": 7079,
      "Ser": 7080,
      "Sto": 7081,
      "Sure": 7082,
      "Tan": 7083,
      "Tis": 7084,
      "Tain": 7085,
      "Ver": 7086,
      "VOL": 7087,
      "Wed": 7088,
      "West": 7089,
      "XII": 7090,
      "Yarm": 7091,
      "_The": 7092,
      "aver": 7093,
      "brill": 7094,
      "cen": 7095,
      "ctic": 7096,
      "dru": 7097,
      "dirt": 7098,
      "daring": 7099,
      "drank": 7100,
      "dashing": 7101,
      "eth": 7102,
      "ebbed": 7103,
      "fide": 7104,
      "fran": 7105,
      "fuse": 7106,
      "ffled": 7107,
      "foul": 7108,
      "gran": 7109,
      "gars": 7110,
      "gments": 7111,
      "giddy": 7112,
      "ia": 7113,
      "ix": 7114,
      "ici": 7115,
      "icious": 7116,
      "jer": 7117,
      "jam": 7118,
      "jac": 7119,
      "kick": 7120,
      "lend": 7121,
      "lity": 7122,
      "lull": 7123,
      "mpet": 7124,
      "marty": 7125,
      "nes": 7126,
      "oy": 7127,
      "obl": 7128,
      "opi": 7129,
      "pou": 7130,
      "pom": 7131,
      "rout": 7132,
      "ratt": 7133,
      "rabbit": 7134,
      "radi": 7135,
      "sway": 7136,
      "sits": 7137,
      "sadd": 7138,
      "source": 7139,
      "tite": 7140,
      "tread": 7141,
      "tted": 7142,
      "tray": 7143,
      "tones": 7144,
      "tiny": 7145,
      "tarts": 7146,
      "ux": 7147,
      "uously": 7148,
      "vor": 7149,
      "vable": 7150,
      "vine": 7151,
      "wow": 7152,
      "wri": 7153,
      "waked": 7154,
      "yhere": 7155,
      "yrin": 7156,
      "zard": 7157,
      "Али": 7158,
      "же": 7159,
      "из": 7160,
      "ки": 7161,
      "лю": 7162,
      "ны": 7163,
      "ре": 7164,
      "та": 7165,
      "thie": 7166,
      "anna": 7167,
      "insu": 7168,
      "inher": 7169,
      "insol": 7170,
      "inhuman": 7171,
      "inquis": 7172,
      "invit": 7173,
      "inquire": 7174,
      "reposed": 7175,
      "revel": 7176,
      "rebell": 7177,
      "redem": 7178,
      "receiving": 7179,
      "require": 7180,
      "retire": 7181,
      "reigned": 7182,
      "outer": 7183,
      "atom": 7184,
      "atics": 7185,
      "edition": 7186,
      "tot": 7187,
      "enable": 7188,
      "enance": 7189,
      "enthr": 7190,
      "ascent": 7191,
      "office": 7192,
      "orange": 7193,
      "itable": 7194,
      "itched": 7195,
      "mered": 7196,
      "aringly": 7197,
      "estee": 7198,
      "hain": 7199,
      "sees": 7200,
      "seaf": 7201,
      "lem": 7202,
      "stray": 7203,
      "strait": 7204,
      "stenance": 7205,
      "nostri": 7206,
      "chasing": 7207,
      "idol": 7208,
      "ghorn": 7209,
      "myri": 7210,
      "vement": 7211,
      "wire": 7212,
      "rol": 7213,
      "roaring": 7214,
      "sober": 7215,
      "sobbed": 7216,
      "liage": 7217,
      "lized": 7218,
      "lions": 7219,
      "limes": 7220,
      "lifting": 7221,
      "welf": 7222,
      "wearing": 7223,
      "weeds": 7224,
      "forgiven": 7225,
      "forgetting": 7226,
      "forbid": 7227,
      "alarm": 7228,
      "ims": 7229,
      "imperfect": 7230,
      "imately": 7231,
      "adow": 7232,
      "alle": 7233,
      "alling": 7234,
      "irres": 7235,
      "irrit": 7236,
      "rive": 7237,
      "rift": 7238,
      "rical": 7239,
      "undone": 7240,
      "unbear": 7241,
      "ferer": 7242,
      "del": 7243,
      "degr": 7244,
      "deeper": 7245,
      "urally": 7246,
      "shirts": 7247,
      "abused": 7248,
      "aground": 7249,
      "nets": 7250,
      "tile": 7251,
      "ticking": 7252,
      "sustenance": 7253,
      "peck": 7254,
      "cony": 7255,
      "conster": 7256,
      "convul": 7257,
      "conversed": 7258,
      "hermit": 7259,
      "copi": 7260,
      "nowhere": 7261,
      "pole": 7262,
      "poles": 7263,
      "loaf": 7264,
      "loves": 7265,
      "losing": 7266,
      "shelf": 7267,
      "ounding": 7268,
      "raving": 7269,
      "usions": 7270,
      "mante": 7271,
      "exas": 7272,
      "exal": 7273,
      "exchanged": 7274,
      "expost": 7275,
      "indign": 7276,
      "ulation": 7277,
      "ulations": 7278,
      "ulses": 7279,
      "lakes": 7280,
      "launch": 7281,
      "Hearts": 7282,
      "Hello": 7283,
      "perished": 7284,
      "moor": 7285,
      "owner": 7286,
      "hogs": 7287,
      "ested": 7288,
      "estim": 7289,
      "commo": 7290,
      "disgu": 7291,
      "disdain": 7292,
      "discharged": 7293,
      "fiction": 7294,
      "forecastle": 7295,
      "aces": 7296,
      "aches": 7297,
      "twisted": 7298,
      "project": 7299,
      "overcame": 7300,
      "spurn": 7301,
      "spilled": 7302,
      "split": 7303,
      "spunk": 7304,
      "sparingly": 7305,
      "cile": 7306,
      "cigare": 7307,
      "diame": 7308,
      "downward": 7309,
      "downstairs": 7310,
      "mud": 7311,
      "blade": 7312,
      "blamed": 7313,
      "bluff": 7314,
      "readily": 7315,
      "Through": 7316,
      "foundation": 7317,
      "foundations": 7318,
      "icing": 7319,
      "glit": 7320,
      "plaited": 7321,
      "pire": 7322,
      "pigs": 7323,
      "picking": 7324,
      "pigeons": 7325,
      "posit": 7326,
      "vio": 7327,
      "everlast": 7328,
      "grant": 7329,
      "shared": 7330,
      "shaken": 7331,
      "fluttering": 7332,
      "pail": 7333,
      "gilded": 7334,
      "lighting": 7335,
      "Were": 7336,
      "passes": 7337,
      "passeng": 7338,
      "shivering": 7339,
      "backs": 7340,
      "gaze": 7341,
      "boyish": 7342,
      "closet": 7343,
      "cloths": 7344,
      "serv": 7345,
      "clad": 7346,
      "clust": 7347,
      "haste": 7348,
      "supreme": 7349,
      "suppressed": 7350,
      "supposition": 7351,
      "supposing": 7352,
      "appetite": 7353,
      "hired": 7354,
      "worldly": 7355,
      "pleasanter": 7356,
      "dency": 7357,
      "brink": 7358,
      "naturally": 7359,
      "standard": 7360,
      "sensu": 7361,
      "sensit": 7362,
      "xton": 7363,
      "foliage": 7364,
      "finds": 7365,
      "merry": 7366,
      "refrain": 7367,
      "wax": 7368,
      "killer": 7369,
      "jewels": 7370,
      "Being": 7371,
      "stee": 7372,
      "stepping": 7373,
      "curves": 7374,
      "correspond": 7375,
      "cordial": 7376,
      "autumn": 7377,
      "resolve": 7378,
      "pane": 7379,
      "panes": 7380,
      "sunset": 7381,
      "sufferer": 7382,
      "traps": 7383,
      "End": 7384,
      "trad": 7385,
      "vales": 7386,
      "destitute": 7387,
      "trumpet": 7388,
      "presents": 7389,
      "linger": 7390,
      "barrels": 7391,
      "writes": 7392,
      "delicious": 7393,
      "sordid": 7394,
      "childhood": 7395,
      "Atkins": 7396,
      "drip": 7397,
      "formal": 7398,
      "rawl": 7399,
      "chain": 7400,
      "champ": 7401,
      "feller": 7402,
      "labyrin": 7403,
      "captured": 7404,
      "fearing": 7405,
      "accent": 7406,
      "accum": 7407,
      "careless": 7408,
      "gunner": 7409,
      "gunpowder": 7410,
      "closely": 7411,
      "trifles": 7412,
      "schools": 7413,
      "charity": 7414,
      "charging": 7415,
      "fancies": 7416,
      "busily": 7417,
      "incant": 7418,
      "musical": 7419,
      "ttes": 7420,
      "limit": 7421,
      "studied": 7422,
      "sumach": 7423,
      "sights": 7424,
      "compens": 7425,
      "fourth": 7426,
      "senseless": 7427,
      "Somebody": 7428,
      "cream": 7429,
      "medium": 7430,
      "tempted": 7431,
      "villain": 7432,
      "mothers": 7433,
      "quickened": 7434,
      "destroyer": 7435,
      "viewed": 7436,
      "drawers": 7437,
      "pushing": 7438,
      "boundless": 7439,
      "metal": 7440,
      "floating": 7441,
      "mathem": 7442,
      "flowing": 7443,
      "dares": 7444,
      "corners": 7445,
      "doubtful": 7446,
      "difficulties": 7447,
      "changes": 7448,
      "fatality": 7449,
      "forgetfulness": 7450,
      "walks": 7451,
      "oblige": 7452,
      "pondency": 7453,
      "secondly": 7454,
      "enjoying": 7455,
      "bells": 7456,
      "social": 7457,
      "patient": 7458,
      "penet": 7459,
      "terrors": 7460,
      "queen": 7461,
      "symbo": 7462,
      "evils": 7463,
      "instructed": 7464,
      "instructions": 7465,
      "producing": 7466,
      "tomb": 7467,
      "bowl": 7468,
      "commonplace": 7469,
      "planks": 7470,
      "volunt": 7471,
      "flir": 7472,
      "flies": 7473,
      "finely": 7474,
      "drowsy": 7475,
      "attempts": 7476,
      "Alps": 7477,
      "Islands": 7478,
      "dresses": 7479,
      "magaz": 7480,
      "sandy": 7481,
      "wolf": 7482,
      "depth": 7483,
      "depths": 7484,
      "gratification": 7485,
      "supernatural": 7486,
      "designs": 7487,
      "seeming": 7488,
      "customs": 7489,
      "discovering": 7490,
      "strict": 7491,
      "deserts": 7492,
      "Lizard": 7493,
      "basis": 7494,
      "funny": 7495,
      "crossing": 7496,
      "raging": 7497,
      "dimly": 7498,
      "turquo": 7499,
      "influenced": 7500,
      "fiendish": 7501,
      "bench": 7502,
      "national": 7503,
      "sticks": 7504,
      "astonishing": 7505,
      "equino": 7506,
      "fowl": 7507,
      "weakness": 7508,
      "endeavours": 7509,
      "frozen": 7510,
      "grandeur": 7511,
      "exhibition": 7512,
      "treated": 7513,
      "victu": 7514,
      "slightly": 7515,
      "Under": 7516,
      "gleam": 7517,
      "latch": 7518,
      "devotion": 7519,
      "poisoned": 7520,
      "contrast": 7521,
      "whispering": 7522,
      "casks": 7523,
      "casual": 7524,
      "instance": 7525,
      "shelves": 7526,
      "westward": 7527,
      "teachers": 7528,
      "See": 7529,
      "gallop": 7530,
      "sinking": 7531,
      "methods": 7532,
      "masts": 7533,
      "rambles": 7534,
      "loaves": 7535,
      "operations": 7536,
      "abhorred": 7537,
      "prevented": 7538,
      "entreaties": 7539,
      "hypo": 7540,
      "machine": 7541,
      "classes": 7542,
      "refreshing": 7543,
      "Portugal": 7544,
      "Quite": 7545,
      "harmless": 7546,
      "parent": 7547,
      "snatch": 7548,
      "throne": 7549,
      "grinning": 7550,
      "preparation": 7551,
      "Leghorn": 7552,
      "bigger": 7553,
      "packed": 7554,
      "environs": 7555,
      "shoal": 7556,
      "shock": 7557,
      "dictate": 7558,
      "inquiry": 7559,
      "aisles": 7560,
      "balls": 7561,
      "ной": 7562,
      "recognize": 7563,
      "seventy": 7564,
      "hostess": 7565,
      "14th": 7566,
      "vacant": 7567,
      "lectures": 7568,
      "feeding": 7569,
      "pearl": 7570,
      "ecstacy": 7571,
      "perplex": 7572,
      "combined": 7573,
      "overwhelming": 7574,
      "glaci": 7575,
      "wrecked": 7576,
      "invented": 7577,
      "selfishness": 7578,
      "tenderly": 7579,
      "tenderness": 7580,
      "prejudiced": 7581,
      "breathe": 7582,
      "enthusiastic": 7583,
      "discouraging": 7584,
      "settlement": 7585,
      "Cape": 7586,
      "лень": 7587,
      "—’”": 7588,
      "intens": 7589,
      "sulky": 7590,
      "chapter": 7591,
      "grieved": 7592,
      "Madrid": 7593,
      "farmer": 7594,
      "troop": 7595,
      "adoration": 7596,
      "adorned": 7597,
      "declare": 7598,
      "attracted": 7599,
      "mirrors": 7600,
      "Americans": 7601,
      "bilities": 7602,
      "narr": 7603,
      "малень": 7604,
      "encouragement": 7605,
      "stamped": 7606,
      "diverted": 7607,
      "sleeves": 7608,
      "sneezing": 7609,
      "lamps": 7610,
      "peasants": 7611,
      "amounted": 7612,
      "responsible": 7613,
      "accomplish": 7614,
      "twinkle": 7615,
      "twinkling": 7616,
      "civilized": 7617,
      "diligence": 7618,
      "intentions": 7619,
      "prevailed": 7620,
      "acknowledged": 7621,
      "yawned": 7622,
      "recommended": 7623,
      "assembled": 7624,
      "hauled": 7625,
      "doomed": 7626,
      "treacherous": 7627,
      "contrivance": 7628,
      "university": 7629,
      "Saviour": 7630,
      "Scotland": 7631,
      "articulate": 7632,
      "abode": 7633,
      "procuration": 7634,
      "diversion": 7635,
      "medicine": 7636,
      "plentiful": 7637,
      "blush": 7638,
      "cultivated": 7639,
      "capacity": 7640,
      "malignity": 7641,
      "politely": 7642,
      "hogshead": 7643,
      "Corneli": 7644,
      "louder": 7645,
      "pouring": 7646,
      "rejoiced": 7647,
      "ribbon": 7648,
      "conviction": 7649,
      "extremity": 7650,
      "perfume": 7651,
      "prosperous": 7652,
      "uddled": 7653,
      "flickering": 7654,
      "Latin": 7655,
      "boots": 7656,
      "flitted": 7657,
      "lofty": 7658,
      "prudence": 7659,
      "severely": 7660,
      "ceremony": 7661,
      "impressive": 7662,
      "exclamation": 7663,
      "dissipate": 7664,
      "answering": 7665,
      "corridor": 7666,
      "additional": 7667,
      "annoyance": 7668,
      "conspicuous": 7669,
      "British": 7670,
      "Brandon": 7671,
      "Venetian": 7672,
      "reputation": 7673,
      "envied": 7674,
      "stumbled": 7675,
      "exultation": 7676,
      "wondrous": 7677,
      "ridiculous": 7678,
      "hurricane": 7679,
      "periagua": 7680,
      "intelligence": 7681,
      "umbrella": 7682,
      "Farewell": 7683,
      "Hetty": 7684,
      "Wednes": 7685,
      "Yarmouth": 7686,
      "fidelity": 7687,
      "martyr": 7688,
      "Алиса": 7689,
      "thieves": 7690,
      "redemption": 7691,
      "esteemed": 7692,
      "seafaring": 7693,
      "nostrils": 7694,
      "irresis": 7695,
      "unbearable": 7696,
      "consternation": 7697,
      "cigarettes": 7698,
      "diameter": 7699,
      "everlasting": 7700,
      "labyrinth": 7701,
      "magazine": 7702,
      "equinox": 7703,
      "Cornelius": 7704,
      "Wednesday": 7705,
      "01": 7706,
      "24": 7707,
      "49K": 7708,
      "7th": 7709,
      ":”": 7710,
      ";—": 7711,
      "AR": 7712,
      "AT": 7713,
      "Aven": 7714,
      "Again": 7715,
      "Book": 7716,
      "Bel": 7717,
      "Bless": 7718,
      "Bull": 7719,
      "Blame": 7720,
      "CE": 7721,
      "Cu": 7722,
      "Cho": 7723,
      "Chur": 7724,
      "Cham": 7725,
      "Dut": 7726,
      "Dart": 7727,
      "ET": 7728,
      "Ever": 7729,
      "Fl": 7730,
      "Gr": 7731,
      "Hy": 7732,
      "Has": 7733,
      "Isa": 7734,
      "List": 7735,
      "Lob": 7736,
      "Lem": 7737,
      "Love": 7738,
      "Lost": 7739,
      "Lacy": 7740,
      "Little": 7741,
      "Men": 7742,
      "Mag": 7743,
      "Mil": 7744,
      "Mex": 7745,
      "Mind": 7746,
      "Many": 7747,
      "Mars": 7748,
      "Maker": 7749,
      "Nay": 7750,
      "None": 7751,
      "New": 7752,
      "Out": 7753,
      "Over": 7754,
      "Pr": 7755,
      "Pam": 7756,
      "Ros": 7757,
      "SH": 7758,
      "Sal": 7759,
      "Sil": 7760,
      "Ste": 7761,
      "Seven": 7762,
      "South": 7763,
      "Ten": 7764,
      "Talk": 7765,
      "Tears": 7766,
      "TOM": 7767,
      "Wer": 7768,
      "Wor": 7769,
      "XI": 7770,
      "amy": 7771,
      "ave": 7772,
      "aco": 7773,
      "aliz": 7774,
      "apers": 7775,
      "bay": 7776,
      "bone": 7777,
      "bind": 7778,
      "baking": 7779,
      "bison": 7780,
      "bond": 7781,
      "baked": 7782,
      "brushed": 7783,
      "cart": 7784,
      "crou": 7785,
      "cask": 7786,
      "couth": 7787,
      "cards": 7788,
      "craz": 7789,
      "craft": 7790,
      "cattle": 7791,
      "crawled": 7792,
      "dan": 7793,
      "dly": 7794,
      "dwe": 7795,
      "dra": 7796,
      "dles": 7797,
      "drum": 7798,
      "dashed": 7799,
      "dagger": 7800,
      "darling": 7801,
      "ece": 7802,
      "ebb": 7803,
      "fr": 7804,
      "frock": 7805,
      "grease": 7806,
      "hoo": 7807,
      "hides": 7808,
      "hating": 7809,
      "honey": 7810,
      "ives": 7811,
      "ivid": 7812,
      "jar": 7813,
      "jured": 7814,
      "knot": 7815,
      "loo": 7816,
      "lain": 7817,
      "link": 7818,
      "lark": 7819,
      "lined": 7820,
      "lones": 7821,
      "lids": 7822,
      "mim": 7823,
      "mend": 7824,
      "mers": 7825,
      "mused": 7826,
      "ns": 7827,
      "nical": 7828,
      "ology": 7829,
      "pend": 7830,
      "pins": 7831,
      "ptoms": 7832,
      "rus": 7833,
      "sven": 7834,
      "skill": 7835,
      "slim": 7836,
      "sending": 7837,
      "sket": 7838,
      "tis": 7839,
      "tid": 7840,
      "ture": 7841,
      "tallow": 7842,
      "uct": 7843,
      "uary": 7844,
      "ugliness": 7845,
      "vors": 7846,
      "vously": 7847,
      "waking": 7848,
      "wrung": 7849,
      "wagon": 7850,
      "yel": 7851,
      "zzed": 7852,
      "бо": 7853,
      "бу": 7854,
      "де": 7855,
      "ку": 7856,
      "ме": 7857,
      "ни": 7858,
      "ну": 7859,
      "под": 7860,
      "ру": 7861,
      "ры": 7862,
      "тк": 7863,
      "что": 7864,
      "шла": 7865,
      "thrill": 7866,
      "ann": 7867,
      "ini": 7868,
      "inity": 7869,
      "inated": 7870,
      "incess": 7871,
      "infancy": 7872,
      "inarily": 7873,
      "injure": 7874,
      "recon": 7875,
      "requi": 7876,
      "recy": 7877,
      "repetition": 7878,
      "recurred": 7879,
      "oudy": 7880,
      "atone": 7881,
      "ander": 7882,
      "edges": 7883,
      "today": 7884,
      "toys": 7885,
      "enor": 7886,
      "enam": 7887,
      "enched": 7888,
      "envelo": 7889,
      "encounter": 7890,
      "enraged": 7891,
      "oft": 7892,
      "orter": 7893,
      "hey": 7894,
      "heed": 7895,
      "iture": 7896,
      "meow": 7897,
      "mellow": 7898,
      "arise": 7899,
      "llis": 7900,
      "haun": 7901,
      "hable": 7902,
      "sex": 7903,
      "sele": 7904,
      "seizing": 7905,
      "bee": 7906,
      "sting": 7907,
      "stout": 7908,
      "stare": 7909,
      "stated": 7910,
      "stud": 7911,
      "stile": 7912,
      "nois": 7913,
      "nobl": 7914,
      "nomin": 7915,
      "noises": 7916,
      "nook": 7917,
      "whit": 7918,
      "whir": 7919,
      "chir": 7920,
      "chances": 7921,
      "charms": 7922,
      "chattered": 7923,
      "vex": 7924,
      "veget": 7925,
      "roar": 7926,
      "roared": 7927,
      "rophe": 7928,
      "utility": 7929,
      "solic": 7930,
      "sovere": 7931,
      "verd": 7932,
      "verge": 7933,
      "licked": 7934,
      "lilac": 7935,
      "weaken": 7936,
      "forci": 7937,
      "forbear": 7938,
      "forsoo": 7939,
      "entie": 7940,
      "ential": 7941,
      "alo": 7942,
      "alind": 7943,
      "immed": 7944,
      "immoral": 7945,
      "irgin": 7946,
      "rio": 7947,
      "riages": 7948,
      "una": 7949,
      "unrem": 7950,
      "unseen": 7951,
      "uncertain": 7952,
      "unreal": 7953,
      "unspeak": 7954,
      "undiscovered": 7955,
      "unhappiness": 7956,
      "unpleasant": 7957,
      "uncommonly": 7958,
      "uncouth": 7959,
      "feature": 7960,
      "felicity": 7961,
      "dece": 7962,
      "defe": 7963,
      "defect": 7964,
      "depress": 7965,
      "deceived": 7966,
      "dejection": 7967,
      "noted": 7968,
      "notes": 7969,
      "noticing": 7970,
      "sher": 7971,
      "shop": 7972,
      "upward": 7973,
      "agged": 7974,
      "outward": 7975,
      "outlaws": 7976,
      "tivation": 7977,
      "ounce": 7978,
      "ounix": 7979,
      "sures": 7980,
      "suits": 7981,
      "suic": 7982,
      "suspect": 7983,
      "sustained": 7984,
      "sustain": 7985,
      "pew": 7986,
      "peered": 7987,
      "pelled": 7988,
      "camore": 7989,
      "conserv": 7990,
      "etc": 7991,
      "ources": 7992,
      "herb": 7993,
      "costu": 7994,
      "cogit": 7995,
      "covet": 7996,
      "pop": 7997,
      "poem": 7998,
      "poign": 7999,
      "poster": 8000,
      "poets": 8001,
      "pockets": 8002,
      "lored": 8003,
      "loite": 8004,
      "lovers": 8005,
      "gospe": 8006,
      "amb": 8007,
      "amuck": 8008,
      "boom": 8009,
      "boil": 8010,
      "sheer": 8011,
      "ounds": 8012,
      "ralia": 8013,
      "resent": 8014,
      "resco": 8015,
      "resource": 8016,
      "teac": 8017,
      "terest": 8018,
      "indust": 8019,
      "induce": 8020,
      "individ": 8021,
      "ulously": 8022,
      "doth": 8023,
      "laun": 8024,
      "quered": 8025,
      "peror": 8026,
      "perance": 8027,
      "perceptible": 8028,
      "modest": 8029,
      "ille": 8030,
      "illusion": 8031,
      "ousers": 8032,
      "astounding": 8033,
      "astrophe": 8034,
      "whoever": 8035,
      "hove": 8036,
      "holy": 8037,
      "endowed": 8038,
      "aff": 8039,
      "facing": 8040,
      "compositions": 8041,
      "dispose": 8042,
      "disorder": 8043,
      "dishes": 8044,
      "disclosed": 8045,
      "ishly": 8046,
      "fibre": 8047,
      "rubb": 8048,
      "rubbing": 8049,
      "sic": 8050,
      "sie": 8051,
      "twentie": 8052,
      "likewise": 8053,
      "prosecut": 8054,
      "cannon": 8055,
      "overset": 8056,
      "overboard": 8057,
      "overflowed": 8058,
      "sprawling": 8059,
      "spapers": 8060,
      "cili": 8061,
      "cipi": 8062,
      "cigars": 8063,
      "bleak": 8064,
      "diet": 8065,
      "divan": 8066,
      "els": 8067,
      "Youth": 8068,
      "Though": 8069,
      "Things": 8070,
      "Thurs": 8071,
      "founder": 8072,
      "glor": 8073,
      "glow": 8074,
      "newspapers": 8075,
      "whereupon": 8076,
      "descent": 8077,
      "despondency": 8078,
      "aps": 8079,
      "appointment": 8080,
      "gram": 8081,
      "grity": 8082,
      "grating": 8083,
      "grunted": 8084,
      "fluttered": 8085,
      "ordinarily": 8086,
      "landsca": 8087,
      "void": 8088,
      "angle": 8089,
      "pavement": 8090,
      "renzy": 8091,
      "tying": 8092,
      "justify": 8093,
      "shiver": 8094,
      "backed": 8095,
      "backward": 8096,
      "gape": 8097,
      "letting": 8098,
      "obed": 8099,
      "cloak": 8100,
      "county": 8101,
      "carpet": 8102,
      "monsters": 8103,
      "solid": 8104,
      "stowed": 8105,
      "clue": 8106,
      "cluded": 8107,
      "cloudy": 8108,
      "hasn": 8109,
      "lieuten": 8110,
      "bitterest": 8111,
      "specul": 8112,
      "specially": 8113,
      "gnaw": 8114,
      "shores": 8115,
      "contra": 8116,
      "emin": 8117,
      "embar": 8118,
      "embark": 8119,
      "emphas": 8120,
      "morals": 8121,
      "ints": 8122,
      "intending": 8123,
      "scrup": 8124,
      "scorn": 8125,
      "gush": 8126,
      "dense": 8127,
      "denied": 8128,
      "uding": 8129,
      "prec": 8130,
      "preach": 8131,
      "prefer": 8132,
      "precipi": 8133,
      "kindled": 8134,
      "appalling": 8135,
      "brim": 8136,
      "brated": 8137,
      "distressed": 8138,
      "distrust": 8139,
      "stands": 8140,
      "cush": 8141,
      "winding": 8142,
      "quiver": 8143,
      "quivering": 8144,
      "soup": 8145,
      "xture": 8146,
      "Harbison": 8147,
      "household": 8148,
      "dreamy": 8149,
      "marvel": 8150,
      "market": 8151,
      "mercil": 8152,
      "merciful": 8153,
      "believes": 8154,
      "waved": 8155,
      "miserably": 8156,
      "jewel": 8157,
      "woody": 8158,
      "steward": 8159,
      "stooping": 8160,
      "attitude": 8161,
      "attached": 8162,
      "tempered": 8163,
      "strangest": 8164,
      "strat": 8165,
      "strings": 8166,
      "spoon": 8167,
      "phan": 8168,
      "talks": 8169,
      "sung": 8170,
      "sunshine": 8171,
      "finer": 8172,
      "finishing": 8173,
      "beauties": 8174,
      "gracious": 8175,
      "tras": 8176,
      "trading": 8177,
      "trousers": 8178,
      "augment": 8179,
      "airy": 8180,
      "visits": 8181,
      "keeps": 8182,
      "lingering": 8183,
      "ava": 8184,
      "bargain": 8185,
      "wringing": 8186,
      "submit": 8187,
      "subjected": 8188,
      "players": 8189,
      "wisht": 8190,
      "skies": 8191,
      "secrecy": 8192,
      "chaos": 8193,
      "sterling": 8194,
      "repu": 8195,
      "capture": 8196,
      "integrity": 8197,
      "impulses": 8198,
      "confident": 8199,
      "confinement": 8200,
      "cultivation": 8201,
      "listless": 8202,
      "dreaming": 8203,
      "reflecting": 8204,
      "nigh": 8205,
      "niece": 8206,
      "catastrophe": 8207,
      "tricks": 8208,
      "insist": 8209,
      "insanity": 8210,
      "delights": 8211,
      "darkened": 8212,
      "soundly": 8213,
      "fanciful": 8214,
      "promising": 8215,
      "promises": 8216,
      "treacle": 8217,
      "casting": 8218,
      "inctively": 8219,
      "deepest": 8220,
      "realism": 8221,
      "priest": 8222,
      "prizes": 8223,
      "blazed": 8224,
      "lane": 8225,
      "reluct": 8226,
      "shedding": 8227,
      "whiskey": 8228,
      "summits": 8229,
      "appearances": 8230,
      "fourteen": 8231,
      "pretending": 8232,
      "medio": 8233,
      "ignomin": 8234,
      "covering": 8235,
      "topic": 8236,
      "kingdom": 8237,
      "sycamore": 8238,
      "doubting": 8239,
      "coldly": 8240,
      "generation": 8241,
      "drawer": 8242,
      "madly": 8243,
      "boundary": 8244,
      "warily": 8245,
      "cottages": 8246,
      "exception": 8247,
      "maid": 8248,
      "maow": 8249,
      "welcomed": 8250,
      "occasionally": 8251,
      "dazz": 8252,
      "ugged": 8253,
      "pursuing": 8254,
      "judgments": 8255,
      "yelling": 8256,
      "sickly": 8257,
      "sickening": 8258,
      "questioned": 8259,
      "harassed": 8260,
      "region": 8261,
      "hairs": 8262,
      "quarre": 8263,
      "plantations": 8264,
      "affectionately": 8265,
      "clothed": 8266,
      "occurrence": 8267,
      "occurrences": 8268,
      "completion": 8269,
      "journ": 8270,
      "swing": 8271,
      "smothered": 8272,
      "fuel": 8273,
      "mistakes": 8274,
      "seconds": 8275,
      "statement": 8276,
      "youthful": 8277,
      "crowned": 8278,
      "tonight": 8279,
      "approve": 8280,
      "collecting": 8281,
      "heavenly": 8282,
      "listeners": 8283,
      "patched": 8284,
      "penit": 8285,
      "pencil": 8286,
      "rers": 8287,
      "symptoms": 8288,
      "petals": 8289,
      "breathless": 8290,
      "mutton": 8291,
      "simplicity": 8292,
      "vari": 8293,
      "examination": 8294,
      "glasses": 8295,
      "occupy": 8296,
      "calmly": 8297,
      "Death": 8298,
      "Devere": 8299,
      "faintly": 8300,
      "Although": 8301,
      "Island": 8302,
      "languid": 8303,
      "ultimately": 8304,
      "animate": 8305,
      "animated": 8306,
      "clearly": 8307,
      "Perth": 8308,
      "Persian": 8309,
      "sands": 8310,
      "utterance": 8311,
      "conversing": 8312,
      "exertions": 8313,
      "persist": 8314,
      "assistant": 8315,
      "favourites": 8316,
      "blessings": 8317,
      "prince": 8318,
      "mixture": 8319,
      "simpl": 8320,
      "stripped": 8321,
      "stricken": 8322,
      "contentment": 8323,
      "execute": 8324,
      "staircase": 8325,
      "studying": 8326,
      "Stand": 8327,
      "warmly": 8328,
      "proceedings": 8329,
      "Within": 8330,
      "knob": 8331,
      "blows": 8332,
      "washed": 8333,
      "probability": 8334,
      "learnt": 8335,
      "winning": 8336,
      "virtuous": 8337,
      "advantages": 8338,
      "honesty": 8339,
      "Williams": 8340,
      "praise": 8341,
      "slack": 8342,
      "turf": 8343,
      "ironwork": 8344,
      "screaming": 8345,
      "fraud": 8346,
      "juven": 8347,
      "juice": 8348,
      "disappoint": 8349,
      "successful": 8350,
      "equalled": 8351,
      "snug": 8352,
      "firmly": 8353,
      "travels": 8354,
      "traveller": 8355,
      "situated": 8356,
      "situations": 8357,
      "dragging": 8358,
      "Monday": 8359,
      "Monmouth": 8360,
      "climb": 8361,
      "frog": 8362,
      "grandfather": 8363,
      "grandson": 8364,
      "stockings": 8365,
      "murderers": 8366,
      "interrupt": 8367,
      "interruption": 8368,
      "drinking": 8369,
      "husbands": 8370,
      "brace": 8371,
      "loudly": 8372,
      "treats": 8373,
      "hammock": 8374,
      "divide": 8375,
      "vainly": 8376,
      "arrows": 8377,
      "suspense": 8378,
      "suspicious": 8379,
      "passages": 8380,
      "removing": 8381,
      "shameful": 8382,
      "gleamed": 8383,
      "latest": 8384,
      "salvation": 8385,
      "timid": 8386,
      "tongues": 8387,
      "лась": 8388,
      "poisonous": 8389,
      "balance": 8390,
      "cooking": 8391,
      "humour": 8392,
      "humili": 8393,
      "pinioned": 8394,
      "instinctively": 8395,
      "prospects": 8396,
      "commander": 8397,
      "Lookyhere": 8398,
      "potence": 8399,
      "teacher": 8400,
      "lightnings": 8401,
      "sharply": 8402,
      "Benamuck": 8403,
      "damask": 8404,
      "blinded": 8405,
      "Really": 8406,
      "Shut": 8407,
      "Shucks": 8408,
      "burying": 8409,
      "sneaked": 8410,
      "ornament": 8411,
      "ladders": 8412,
      "flowerlike": 8413,
      "couch": 8414,
      "operation": 8415,
      "employments": 8416,
      "cautious": 8417,
      "conveni": 8418,
      "model": 8419,
      "marrying": 8420,
      "tragedies": 8421,
      "avoided": 8422,
      "eternity": 8423,
      "pork": 8424,
      "swallow": 8425,
      "soldier": 8426,
      "consume": 8427,
      "consulted": 8428,
      "opinions": 8429,
      "dependent": 8430,
      "dominions": 8431,
      "neighbouring": 8432,
      "Satan": 8433,
      "breeches": 8434,
      "bankrup": 8435,
      "vigor": 8436,
      "vigour": 8437,
      "grinned": 8438,
      "softened": 8439,
      "ING": 8440,
      "soothing": 8441,
      "sown": 8442,
      ",’”": 8443,
      "hostages": 8444,
      "curtains": 8445,
      "furiously": 8446,
      "sympathized": 8447,
      "decidedly": 8448,
      "sacrifi": 8449,
      "communicate": 8450,
      "improvements": 8451,
      "guiltless": 8452,
      "demanded": 8453,
      "stupidity": 8454,
      "fruitful": 8455,
      "Boy": 8456,
      "END": 8457,
      "Hush": 8458,
      "Morning": 8459,
      "glare": 8460,
      "hookah": 8461,
      "realized": 8462,
      "decline": 8463,
      "lodge": 8464,
      "comforting": 8465,
      "complained": 8466,
      "whitewashing": 8467,
      "elevating": 8468,
      "bills": 8469,
      "glimpse": 8470,
      "revive": 8471,
      "novelty": 8472,
      "channel": 8473,
      "discouraged": 8474,
      "elaborately": 8475,
      "survivors": 8476,
      "conjecture": 8477,
      "emerged": 8478,
      "emerald": 8479,
      "elderly": 8480,
      "Carib": 8481,
      "hilar": 8482,
      "invited": 8483,
      "trampled": 8484,
      "compliments": 8485,
      "peculiarly": 8486,
      "narration": 8487,
      "relaxed": 8488,
      "relapse": 8489,
      "peeping": 8490,
      "queror": 8491,
      "film": 8492,
      "tales": 8493,
      "как": 8494,
      "shriek": 8495,
      "indulged": 8496,
      "providing": 8497,
      "civilization": 8498,
      "betrayed": 8499,
      "brooded": 8500,
      "psychological": 8501,
      "Temple": 8502,
      "Temperance": 8503,
      "issue": 8504,
      "nodding": 8505,
      "keenly": 8506,
      "peluna": 8507,
      "prompted": 8508,
      "treachery": 8509,
      "calculated": 8510,
      "drooped": 8511,
      "drownded": 8512,
      "contrivances": 8513,
      "universal": 8514,
      "Germany": 8515,
      "fragment": 8516,
      "inspiration": 8517,
      "inflicted": 8518,
      "revolved": 8519,
      "enchanted": 8520,
      "orchids": 8521,
      "stalks": 8522,
      "develop": 8523,
      "constructed": 8524,
      "illustrious": 8525,
      "inevitable": 8526,
      "inevitably": 8527,
      "flamingo": 8528,
      "brutal": 8529,
      "practise": 8530,
      "luxurious": 8531,
      "Better": 8532,
      "Grosven": 8533,
      "Ruxton": 8534,
      "dungeon": 8535,
      "snore": 8536,
      "sloping": 8537,
      "uffling": 8538,
      "annihil": 8539,
      "inspired": 8540,
      "behaviour": 8541,
      "whistle": 8542,
      "scented": 8543,
      "surveyed": 8544,
      "apparition": 8545,
      "visitors": 8546,
      "substance": 8547,
      "testimony": 8548,
      "contributed": 8549,
      "philosophers": 8550,
      "Cursed": 8551,
      "Since": 8552,
      "mastered": 8553,
      "odious": 8554,
      "rules": 8555,
      "wafted": 8556,
      "released": 8557,
      "tossing": 8558,
      "orgies": 8559,
      "consistent": 8560,
      "similar": 8561,
      "miraculous": 8562,
      "multiplied": 8563,
      "squeezed": 8564,
      "monotonous": 8565,
      "Tavern": 8566,
      "premature": 8567,
      "inwardly": 8568,
      "tolerably": 8569,
      "hawk": 8570,
      "forsaken": 8571,
      "policeman": 8572,
      "respected": 8573,
      "provoked": 8574,
      "diamonds": 8575,
      "privilege": 8576,
      "subsistence": 8577,
      "doctrine": 8578,
      "Australia": 8579,
      "Charles": 8580,
      "Jura": 8581,
      "brilli": 8582,
      "frantic": 8583,
      "obliter": 8584,
      "pomp": 8585,
      "annah": 8586,
      "inquisit": 8587,
      "revelation": 8588,
      "forgiveness": 8589,
      "mantel": 8590,
      "exalted": 8591,
      "glittering": 8592,
      "steeple": 8593,
      "mathematics": 8594,
      "daresay": 8595,
      "flirt": 8596,
      "narrative": 8597,
      "irresistible": 8598,
      "Avenger": 8599,
      "Blessed": 8600,
      "Chamounix": 8601,
      "Dutch": 8602,
      "Dartmoor": 8603,
      "Listen": 8604,
      "Lobster": 8605,
      "Lemme": 8606,
      "Mexi": 8607,
      "Pampeluna": 8608,
      "Rosalind": 8609,
      "Werter": 8610,
      "crazy": 8611,
      "dwelt": 8612,
      "framed": 8613,
      "hookey": 8614,
      "requires": 8615,
      "enorm": 8616,
      "enamoured": 8617,
      "sovereign": 8618,
      "forcibly": 8619,
      "forsook": 8620,
      "suicide": 8621,
      "conservatory": 8622,
      "costume": 8623,
      "loitered": 8624,
      "gospel": 8625,
      "teacup": 8626,
      "industry": 8627,
      "individual": 8628,
      "twentieth": 8629,
      "Thursday": 8630,
      "landscape": 8631,
      "lieutenant": 8632,
      "precipice": 8633,
      "merciless": 8634,
      "Devereux": 8635,
      "Benamuckee": 8636,
      "Grosvenor": 8637,
      "!...": 8638,
      "(“": 8639,
      "):": 8640,
      "28": 8641,
      "63K": 8642,
      "AV": 8643,
      "Ain": 8644,
      "Bay": 8645,
      "Cha": 8646,
      "Coun": 8647,
      "Chow": 8648,
      "Chi": 8649,
      "Came": 8650,
      "Cali": 8651,
      "Da": 8652,
      "Der": 8653,
      "Dis": 8654,
      "DER": 8655,
      "Ed": 8656,
      "Ear": 8657,
      "Edin": 8658,
      "EIN": 8659,
      "ETHE": 8660,
      "FA": 8661,
      "Fe": 8662,
      "Fort": 8663,
      "Fortun": 8664,
      "Gaut": 8665,
      "Grace": 8666,
      "Hav": 8667,
      "Ire": 8668,
      "Imo": 8669,
      "ION": 8670,
      "Jour": 8671,
      "Jap": 8672,
      "Kiss": 8673,
      "KEN": 8674,
      "Land": 8675,
      "Long": 8676,
      "Lace": 8677,
      "Least": 8678,
      "LET": 8679,
      "MO": 8680,
      "Med": 8681,
      "Mal": 8682,
      "Main": 8683,
      "Might": 8684,
      "Mel": 8685,
      "Mabe": 8686,
      "Money": 8687,
      "QU": 8688,
      "Ri": 8689,
      "Res": 8690,
      "Reli": 8691,
      "Sy": 8692,
      "Sur": 8693,
      "Sup": 8694,
      "Squ": 8695,
      "Sav": 8696,
      "Speak": 8697,
      "Sounds": 8698,
      "Stras": 8699,
      "Tor": 8700,
      "Tread": 8701,
      "Up": 8702,
      "Ugliness": 8703,
      "Ven": 8704,
      "Virgin": 8705,
      "Whe": 8706,
      "Went": 8707,
      "Western": 8708,
      "XIII": 8709,
      "XIV": 8710,
      "Yor": 8711,
      "Youn": 8712,
      "[*": 8713,
      "_de": 8714,
      "apo": 8715,
      "aud": 8716,
      "aval": 8717,
      "avers": 8718,
      "athed": 8719,
      "bul": 8720,
      "bake": 8721,
      "buck": 8722,
      "batt": 8723,
      "bbles": 8724,
      "baths": 8725,
      "cli": 8726,
      "cad": 8727,
      "core": 8728,
      "chaps": 8729,
      "crawling": 8730,
      "das": 8731,
      "dow": 8732,
      "dil": 8733,
      "dong": 8734,
      "dum": 8735,
      "dened": 8736,
      "dings": 8737,
      "dling": 8738,
      "dates": 8739,
      "drenched": 8740,
      "eous": 8741,
      "emed": 8742,
      "elly": 8743,
      "fade": 8744,
      "fount": 8745,
      "filed": 8746,
      "gru": 8747,
      "gated": 8748,
      "goose": 8749,
      "hence": 8750,
      "hats": 8751,
      "huddled": 8752,
      "iel": 8753,
      "ium": 8754,
      "itor": 8755,
      "ibles": 8756,
      "jing": 8757,
      "jings": 8758,
      "jail": 8759,
      "kly": 8760,
      "kily": 8761,
      "lk": 8762,
      "lis": 8763,
      "lun": 8764,
      "lur": 8765,
      "lag": 8766,
      "lum": 8767,
      "lting": 8768,
      "lashes": 8769,
      "lsus": 8770,
      "mare": 8771,
      "mice": 8772,
      "nus": 8773,
      "nap": 8774,
      "nimble": 8775,
      "oc": 8776,
      "ox": 8777,
      "oat": 8778,
      "ote": 8779,
      "oven": 8780,
      "oked": 8781,
      "pas": 8782,
      "pman": 8783,
      "pant": 8784,
      "piled": 8785,
      "plied": 8786,
      "pens": 8787,
      "rab": 8788,
      "rattle": 8789,
      "scan": 8790,
      "sened": 8791,
      "sash": 8792,
      "scho": 8793,
      "swer": 8794,
      "scold": 8795,
      "slu": 8796,
      "sworn": 8797,
      "scope": 8798,
      "sisters": 8799,
      "twas": 8800,
      "tles": 8801,
      "tended": 8802,
      "text": 8803,
      "wl": 8804,
      "wits": 8805,
      "wist": 8806,
      "woe": 8807,
      "woes": 8808,
      "yri": 8809,
      "êve": 8810,
      "бе": 8811,
      "вс": 8812,
      "вы": 8813,
      "да": 8814,
      "ей": 8815,
      "клю": 8816,
      "лу": 8817,
      "ми": 8818,
      "он": 8819,
      "сто": 8820,
      "сли": 8821,
      "ума": 8822,
      "ход": 8823,
      "ше": 8824,
      "это": 8825,
      "ём": 8826,
      "——": 8827,
      "thrush": 8828,
      "thumb": 8829,
      "anche": 8830,
      "anks": 8831,
      "anew": 8832,
      "anthro": 8833,
      "anese": 8834,
      "inf": 8835,
      "inve": 8836,
      "inous": 8837,
      "inople": 8838,
      "incor": 8839,
      "inform": 8840,
      "injun": 8841,
      "incomplete": 8842,
      "insupport": 8843,
      "insepar": 8844,
      "invin": 8845,
      "investi": 8846,
      "inaccess": 8847,
      "insurmount": 8848,
      "infamous": 8849,
      "inanimate": 8850,
      "reform": 8851,
      "attain": 8852,
      "onation": 8853,
      "ontory": 8854,
      "tops": 8855,
      "tories": 8856,
      "tomorrow": 8857,
      "tolerable": 8858,
      "ena": 8859,
      "encom": 8860,
      "enlar": 8861,
      "enclose": 8862,
      "encoun": 8863,
      "ennu": 8864,
      "enlightened": 8865,
      "ases": 8866,
      "asies": 8867,
      "asping": 8868,
      "iso": 8869,
      "isance": 8870,
      "isol": 8871,
      "issor": 8872,
      "istered": 8873,
      "oring": 8874,
      "hears": 8875,
      "heats": 8876,
      "ingrat": 8877,
      "itan": 8878,
      "itar": 8879,
      "mest": 8880,
      "meats": 8881,
      "meadow": 8882,
      "arbit": 8883,
      "arches": 8884,
      "aristo": 8885,
      "arrested": 8886,
      "llers": 8887,
      "halted": 8888,
      "beer": 8889,
      "bears": 8890,
      "befall": 8891,
      "bewild": 8892,
      "beads": 8893,
      "befitting": 8894,
      "leak": 8895,
      "leop": 8896,
      "legged": 8897,
      "lemons": 8898,
      "lebrated": 8899,
      "stun": 8900,
      "stable": 8901,
      "stately": 8902,
      "stony": 8903,
      "nostic": 8904,
      "wasting": 8905,
      "whoop": 8906,
      "thatched": 8907,
      "chink": 8908,
      "chuck": 8909,
      "chilly": 8910,
      "christ": 8911,
      "chunk": 8912,
      "mystic": 8913,
      "wig": 8914,
      "wipe": 8915,
      "wiped": 8916,
      "celebrated": 8917,
      "rots": 8918,
      "rocky": 8919,
      "rogue": 8920,
      "sob": 8921,
      "soled": 8922,
      "lict": 8923,
      "livery": 8924,
      "liken": 8925,
      "aye": 8926,
      "weal": 8927,
      "forsake": 8928,
      "withal": 8929,
      "alid": 8930,
      "altern": 8931,
      "alais": 8932,
      "aloft": 8933,
      "immin": 8934,
      "impet": 8935,
      "imposing": 8936,
      "adore": 8937,
      "adually": 8938,
      "adrill": 8939,
      "allel": 8940,
      "allied": 8941,
      "irted": 8942,
      "rival": 8943,
      "richer": 8944,
      "rigging": 8945,
      "rigible": 8946,
      "omer": 8947,
      "omitted": 8948,
      "omatic": 8949,
      "unde": 8950,
      "unqu": 8951,
      "unkind": 8952,
      "unpar": 8953,
      "uncovered": 8954,
      "unaccount": 8955,
      "unfair": 8956,
      "unnatural": 8957,
      "unchanged": 8958,
      "unperceived": 8959,
      "unusual": 8960,
      "unworthy": 8961,
      "unrolled": 8962,
      "undoubted": 8963,
      "unciation": 8964,
      "demon": 8965,
      "demean": 8966,
      "dearer": 8967,
      "demn": 8968,
      "dejected": 8969,
      "depressing": 8970,
      "deemed": 8971,
      "notch": 8972,
      "notices": 8973,
      "sack": 8974,
      "sapp": 8975,
      "sacks": 8976,
      "ooti": 8977,
      "urable": 8978,
      "shru": 8979,
      "shucks": 8980,
      "shorter": 8981,
      "agne": 8982,
      "butler": 8983,
      "keel": 8984,
      "outrage": 8985,
      "tial": 8986,
      "tipped": 8987,
      "ticket": 8988,
      "tigers": 8989,
      "therly": 8990,
      "peal": 8991,
      "peaco": 8992,
      "cape": 8993,
      "caprice": 8994,
      "concent": 8995,
      "confirm": 8996,
      "confounded": 8997,
      "conjure": 8998,
      "convales": 8999,
      "consoled": 9000,
      "condemn": 9001,
      "coin": 9002,
      "coins": 9003,
      "copy": 9004,
      "poise": 9005,
      "loat": 9006,
      "loses": 9007,
      "logs": 9008,
      "locking": 9009,
      "amber": 9010,
      "ifying": 9011,
      "boast": 9012,
      "boiled": 9013,
      "bodings": 9014,
      "sheets": 9015,
      "shewn": 9016,
      "rail": 9017,
      "ractic": 9018,
      "uss": 9019,
      "rescu": 9020,
      "resisted": 9021,
      "respite": 9022,
      "resources": 9023,
      "mant": 9024,
      "manly": 9025,
      "excur": 9026,
      "expen": 9027,
      "expir": 9028,
      "exagger": 9029,
      "tele": 9030,
      "ulster": 9031,
      "dock": 9032,
      "dozing": 9033,
      "lave": 9034,
      "lazy": 9035,
      "ques": 9036,
      "quate": 9037,
      "quity": 9038,
      "quitting": 9039,
      "Hear": 9040,
      "perv": 9041,
      "permit": 9042,
      "permission": 9043,
      "perpend": 9044,
      "oused": 9045,
      "worry": 9046,
      "owned": 9047,
      "whatsoever": 9048,
      "gered": 9049,
      "geography": 9050,
      "affirm": 9051,
      "afloat": 9052,
      "atee": 9053,
      "failing": 9054,
      "favor": 9055,
      "ittance": 9056,
      "compet": 9057,
      "dismay": 9058,
      "disappearance": 9059,
      "disagree": 9060,
      "discomposure": 9061,
      "Whence": 9062,
      "herent": 9063,
      "fies": 9064,
      "fiery": 9065,
      "Italy": 9066,
      "venerable": 9067,
      "foremost": 9068,
      "ruins": 9069,
      "acs": 9070,
      "acies": 9071,
      "accur": 9072,
      "active": 9073,
      "acquire": 9074,
      "adequate": 9075,
      "sia": 9076,
      "sitory": 9077,
      "sipping": 9078,
      "sieur": 9079,
      "twitched": 9080,
      "prow": 9081,
      "proving": 9082,
      "proport": 9083,
      "protest": 9084,
      "canni": 9085,
      "overlook": 9086,
      "sprit": 9087,
      "springs": 9088,
      "ciate": 9089,
      "ciences": 9090,
      "thoughtfully": 9091,
      "blem": 9092,
      "comely": 9093,
      "ranged": 9094,
      "willow": 9095,
      "mightily": 9096,
      "retribut": 9097,
      "muffled": 9098,
      "eluded": 9099,
      "episo": 9100,
      "blur": 9101,
      "blunder": 9102,
      "blings": 9103,
      "beforehand": 9104,
      "pressure": 9105,
      "Think": 9106,
      "Thanks": 9107,
      "icy": 9108,
      "icated": 9109,
      "icular": 9110,
      "gles": 9111,
      "glist": 9112,
      "glowed": 9113,
      "newly": 9114,
      "plaus": 9115,
      "wherein": 9116,
      "whereof": 9117,
      "pires": 9118,
      "desir": 9119,
      "desiring": 9120,
      "poses": 9121,
      "vial": 9122,
      "vivac": 9123,
      "gris": 9124,
      "grasped": 9125,
      "gets": 9126,
      "Ann": 9127,
      "sham": 9128,
      "flor": 9129,
      "flashes": 9130,
      "flinging": 9131,
      "umsy": 9132,
      "nightly": 9133,
      "voc": 9134,
      "anging": 9135,
      "paired": 9136,
      "aching": 9137,
      "offence": 9138,
      "offering": 9139,
      "offensive": 9140,
      "tyran": 9141,
      "justly": 9142,
      "background": 9143,
      "gaunt": 9144,
      "miscarried": 9145,
      "obstru": 9146,
      "obvious": 9147,
      "parting": 9148,
      "ucked": 9149,
      "counted": 9150,
      "carved": 9151,
      "carbun": 9152,
      "monaster": 9153,
      "monds": 9154,
      "happiest": 9155,
      "stove": 9156,
      "stopping": 9157,
      "clut": 9158,
      "clump": 9159,
      "clumsy": 9160,
      "rests": 9161,
      "restrain": 9162,
      "restrained": 9163,
      "Note": 9164,
      "sedate": 9165,
      "biting": 9166,
      "spear": 9167,
      "gnant": 9168,
      "contain": 9169,
      "shipwrecked": 9170,
      "emp": 9171,
      "riding": 9172,
      "ridge": 9173,
      "puts": 9174,
      "morti": 9175,
      "morality": 9176,
      "morbid": 9177,
      "Lordy": 9178,
      "nervously": 9179,
      "scor": 9180,
      "scissor": 9181,
      "consists": 9182,
      "pleases": 9183,
      "friendless": 9184,
      "fullest": 9185,
      "surrender": 9186,
      "gulf": 9187,
      "guitar": 9188,
      "fortitude": 9189,
      "dens": 9190,
      "hearty": 9191,
      "heartless": 9192,
      "fathers": 9193,
      "preached": 9194,
      "previous": 9195,
      "parable": 9196,
      "parado": 9197,
      "parrots": 9198,
      "apples": 9199,
      "brings": 9200,
      "Ask": 9201,
      "loveliest": 9202,
      "distributed": 9203,
      "cutor": 9204,
      "roundabout": 9205,
      "souri": 9206,
      "hardy": 9207,
      "hardness": 9208,
      "mini": 9209,
      "minut": 9210,
      "foll": 9211,
      "foam": 9212,
      "painfully": 9213,
      "refined": 9214,
      "Becuz": 9215,
      "woodshed": 9216,
      "steel": 9217,
      "stealth": 9218,
      "lowest": 9219,
      "ceivable": 9220,
      "greed": 9221,
      "joyed": 9222,
      "cutl": 9223,
      "Yesterday": 9224,
      "largest": 9225,
      "suffo": 9226,
      "final": 9227,
      "graph": 9228,
      "gravel": 9229,
      "sils": 9230,
      "hushed": 9231,
      "returns": 9232,
      "traded": 9233,
      "airs": 9234,
      "powdered": 9235,
      "duly": 9236,
      "lingered": 9237,
      "barrier": 9238,
      "dreading": 9239,
      "subsequ": 9240,
      "submission": 9241,
      "submitted": 9242,
      "Nowadays": 9243,
      "driver": 9244,
      "drift": 9245,
      "girdle": 9246,
      "zeal": 9247,
      "oftener": 9248,
      "reasoned": 9249,
      "reasoning": 9250,
      "reckless": 9251,
      "buying": 9252,
      "buzzed": 9253,
      "severity": 9254,
      "wildest": 9255,
      "wildness": 9256,
      "intercourse": 9257,
      "versary": 9258,
      "continuing": 9259,
      "hinder": 9260,
      "growled": 9261,
      "impending": 9262,
      "impassa": 9263,
      "impractic": 9264,
      "career": 9265,
      "confide": 9266,
      "conflict": 9267,
      "imagining": 9268,
      "dreamt": 9269,
      "gundy": 9270,
      "tapped": 9271,
      "savannah": 9272,
      "clapped": 9273,
      "clapping": 9274,
      "trivial": 9275,
      "fortunately": 9276,
      "sweated": 9277,
      "helping": 9278,
      "charges": 9279,
      "charcoal": 9280,
      "charitable": 9281,
      "alongside": 9282,
      "Home": 9283,
      "promontory": 9284,
      "plains": 9285,
      "calmer": 9286,
      "busied": 9287,
      "frighten": 9288,
      "castles": 9289,
      "freight": 9290,
      "angels": 9291,
      "deepened": 9292,
      "Forgive": 9293,
      "muscle": 9294,
      "muscles": 9295,
[...]
